{
  "vocab": {
    "'": 0,
    "'re</w>": 1,
    "'s</w>": 2,
    "-": 3,
    "...</w>": 4,
    ".</w>": 5,
    "0": 6,
    "1": 7,
    "2": 8,
    "3": 9,
    "3</w>": 10,
    "4": 11,
    "5": 12,
    "6": 13,
    "7": 14,
    "8": 15,
    "9": 16,
    "</w>": 17,
    "<unk>": 18,
    "a": 19,
    "a.</w>": 20,
    "a</w>": 21,
    "ab": 22,
    "about</w>": 23,
    "ac": 24,
    "af": 25,
    "afraid</w>": 26,
    "after</w>": 27,
    "again.</w>": 28,
    "against</w>": 29,
    "al": 30,
    "al.</w>": 31,
    "al</w>": 32,
    "algae</w>": 33,
    "all</w>": 34,
    "ally</w>": 35,
    "alone</w>": 36,
    "along</w>": 37,
    "also</w>": 38,
    "alwa": 39,
    "always</w>": 40,
    "am</w>": 41,
    "an": 42,
    "an</w>": 43,
    "and</w>": 44,
    "any": 45,
    "any.</w>": 46,
    "any</w>": 47,
    "anything</w>": 48,
    "app": 49,
    "ar": 50,
    "ar</w>": 51,
    "are</w>": 52,
    "around</w>": 53,
    "as": 54,
    "as</w>": 55,
    "at": 56,
    "at.</w>": 57,
    "at</w>": 58,
    "ate.</w>": 59,
    "ate</w>": 60,
    "ated.</w>": 61,
    "ati": 62,
    "ating</w>": 63,
    "ation.</w>": 64,
    "atur": 65,
    "ature</w>": 66,
    "b": 67,
    "ba": 68,
    "back.</w>": 69,
    "bad.</w>": 70,
    "bad</w>": 71,
    "bathroo": 72,
    "bb": 73,
    "be": 74,
    "be.</w>": 75,
    "be</w>": 76,
    "been</w>": 77,
    "before.</w>": 78,
    "behind</w>": 79,
    "being</w>": 80,
    "belly</w>": 81,
    "best.</w>": 82,
    "best</w>": 83,
    "better</w>": 84,
    "between</w>": 85,
    "bi": 86,
    "big.</w>": 87,
    "big</w>": 88,
    "bigg": 89,
    "bigger</w>": 90,
    "biggest</w>": 91,
    "bir": 92,
    "birth": 93,
    "bit</w>": 94,
    "bl": 95,
    "bo": 96,
    "body</w>": 97,
    "bor": 98,
    "bored</w>": 99,
    "boring</w>": 100,
    "both</w>": 101,
    "botto": 102,
    "bottom</w>": 103,
    "br": 104,
    "brain.</w>": 105,
    "brain</w>": 106,
    "brea": 107,
    "breathe</w>": 108,
    "breathing</w>": 109,
    "bri": 110,
    "bridg": 111,
    "bright</w>": 112,
    "bring</w>": 113,
    "brow": 114,
    "bu": 115,
    "bubb": 116,
    "bubbles.</w>": 117,
    "bubbles</w>": 118,
    "but</w>": 119,
    "by</w>": 120,
    "bye.</w>": 121,
    "bye</w>": 122,
    "c": 123,
    "ca": 124,
    "cal": 125,
    "can": 126,
    "can't</w>": 127,
    "can</w>": 128,
    "cast": 129,
    "castle</w>": 130,
    "cat</w>": 131,
    "cau": 132,
    "cave</w>": 133,
    "ce": 134,
    "ce.</w>": 135,
    "ce</w>": 136,
    "ch": 137,
    "ch.</w>": 138,
    "ch</w>": 139,
    "chan": 140,
    "chang": 141,
    "change": 142,
    "change</w>": 143,
    "changes</w>": 144,
    "chas": 145,
    "che": 146,
    "chi": 147,
    "ci": 148,
    "circ": 149,
    "circle": 150,
    "cit": 151,
    "ck": 152,
    "ck.</w>": 153,
    "ck</w>": 154,
    "cle": 155,
    "clean": 156,
    "clean</w>": 157,
    "cleaned</w>": 158,
    "cleaning</w>": 159,
    "clo": 160,
    "close</w>": 161,
    "clou": 162,
    "cloudy</w>": 163,
    "co": 164,
    "col": 165,
    "cold.</w>": 166,
    "cold</w>": 167,
    "color": 168,
    "color</w>": 169,
    "colorful</w>": 170,
    "colors</w>": 171,
    "com": 172,
    "come": 173,
    "comes</w>": 174,
    "comp": 175,
    "con": 176,
    "confu": 177,
    "cool": 178,
    "cool</w>": 179,
    "coolne": 180,
    "coolness</w>": 181,
    "coral</w>": 182,
    "corn": 183,
    "corner.</w>": 184,
    "could</w>": 185,
    "cr": 186,
    "ct.</w>": 187,
    "ct</w>": 188,
    "cti": 189,
    "cu": 190,
    "curi": 191,
    "curious</w>": 192,
    "curr": 193,
    "current</w>": 194,
    "d": 195,
    "d.</w>": 196,
    "d</w>": 197,
    "da": 198,
    "daphni": 199,
    "daphnia.</w>": 200,
    "dar": 201,
    "dark</w>": 202,
    "day.</w>": 203,
    "day</w>": 204,
    "dd": 205,
    "de": 206,
    "de.</w>": 207,
    "de</w>": 208,
    "decor": 209,
    "der.</w>": 210,
    "der</w>": 211,
    "dg": 212,
    "di": 213,
    "did</w>": 214,
    "didn't</w>": 215,
    "differen": 216,
    "different.</w>": 217,
    "different</w>": 218,
    "differently</w>": 219,
    "ding</w>": 220,
    "dn't</w>": 221,
    "do": 222,
    "do</w>": 223,
    "does</w>": 224,
    "doesn't</w>": 225,
    "doing</w>": 226,
    "don't</w>": 227,
    "dorsal</w>": 228,
    "dow": 229,
    "dow.</w>": 230,
    "dr": 231,
    "drea": 232,
    "dream.</w>": 233,
    "dream</w>": 234,
    "ds.</w>": 235,
    "ds</w>": 236,
    "dy.</w>": 237,
    "dy</w>": 238,
    "e": 239,
    "e.</w>": 240,
    "e</w>": 241,
    "ear": 242,
    "earli": 243,
    "earlier.</w>": 244,
    "eas": 245,
    "eat.</w>": 246,
    "eat</w>": 247,
    "ed.</w>": 248,
    "ed</w>": 249,
    "eds</w>": 250,
    "ee": 251,
    "el": 252,
    "ely.</w>": 253,
    "ely</w>": 254,
    "en": 255,
    "en.</w>": 256,
    "en</w>": 257,
    "enough.</w>": 258,
    "enough</w>": 259,
    "ent": 260,
    "ent.</w>": 261,
    "ent</w>": 262,
    "er": 263,
    "er.</w>": 264,
    "er</w>": 265,
    "ere's</w>": 266,
    "ere.</w>": 267,
    "erv": 268,
    "es": 269,
    "es.</w>": 270,
    "es</w>": 271,
    "ev": 272,
    "ever</w>": 273,
    "every": 274,
    "every</w>": 275,
    "everything.</w>": 276,
    "everything</w>": 277,
    "ex": 278,
    "excit": 279,
    "excited.</w>": 280,
    "excited</w>": 281,
    "exi": 282,
    "exist</w>": 283,
    "eyes.</w>": 284,
    "eyes</w>": 285,
    "f": 286,
    "f</w>": 287,
    "fa": 288,
    "fas": 289,
    "fast</w>": 290,
    "faster</w>": 291,
    "favorit": 292,
    "favorite</w>": 293,
    "fe": 294,
    "fear</w>": 295,
    "feed</w>": 296,
    "feel": 297,
    "feel</w>": 298,
    "feels</w>": 299,
    "felt</w>": 300,
    "fer</w>": 301,
    "ff": 302,
    "ff.</w>": 303,
    "fi": 304,
    "filter.</w>": 305,
    "filter</w>": 306,
    "fin": 307,
    "fin</w>": 308,
    "fine.</w>": 309,
    "fins.</w>": 310,
    "fins</w>": 311,
    "fish": 312,
    "fish.</w>": 313,
    "fish</w>": 314,
    "fla": 315,
    "flo": 316,
    "floating</w>": 317,
    "fo": 318,
    "food.</w>": 319,
    "food</w>": 320,
    "for": 321,
    "for</w>": 322,
    "forget</w>": 323,
    "found</w>": 324,
    "fre": 325,
    "friend": 326,
    "friend.</w>": 327,
    "friend</w>": 328,
    "friends.</w>": 329,
    "friends</w>": 330,
    "fro": 331,
    "from.</w>": 332,
    "from</w>": 333,
    "ful.</w>": 334,
    "ful</w>": 335,
    "funny</w>": 336,
    "g": 337,
    "g.</w>": 338,
    "g</w>": 339,
    "ga": 340,
    "ge": 341,
    "ge</w>": 342,
    "gent": 343,
    "gentle.</w>": 344,
    "gentle</w>": 345,
    "get</w>": 346,
    "gets</w>": 347,
    "getting</w>": 348,
    "gh": 349,
    "ght": 350,
    "ght.</w>": 351,
    "ght</w>": 352,
    "gi": 353,
    "gill": 354,
    "gills</w>": 355,
    "glass.</w>": 356,
    "glass</w>": 357,
    "go": 358,
    "go</w>": 359,
    "goals</w>": 360,
    "goes</w>": 361,
    "going</w>": 362,
    "good": 363,
    "good.</w>": 364,
    "good</w>": 365,
    "goodnight</w>": 366,
    "got</w>": 367,
    "gr": 368,
    "gravel.</w>": 369,
    "gravel</w>": 370,
    "gre": 371,
    "green</w>": 372,
    "grow": 373,
    "grow</w>": 374,
    "gu": 375,
    "guppy.</w>": 376,
    "guppy</w>": 377,
    "h": 378,
    "had</w>": 379,
    "han": 380,
    "happ": 381,
    "happen": 382,
    "happened.</w>": 383,
    "happened</w>": 384,
    "happens.</w>": 385,
    "happy.</w>": 386,
    "happy</w>": 387,
    "har": 388,
    "hard</w>": 389,
    "has</w>": 390,
    "have</w>": 391,
    "he": 392,
    "heal": 393,
    "health": 394,
    "healthy</w>": 395,
    "hear": 396,
    "hear</w>": 397,
    "heater</w>": 398,
    "hel": 399,
    "hello.</w>": 400,
    "hello</w>": 401,
    "help</w>": 402,
    "here.</w>": 403,
    "here</w>": 404,
    "hey</w>": 405,
    "hi": 406,
    "hi.</w>": 407,
    "hi</w>": 408,
    "hide</w>": 409,
    "hiding</w>": 410,
    "ho": 411,
    "hope</w>": 412,
    "hot</w>": 413,
    "how": 414,
    "how's</w>": 415,
    "how</w>": 416,
    "hu": 417,
    "hum": 418,
    "human": 419,
    "human</w>": 420,
    "hungr": 421,
    "i": 422,
    "i'": 423,
    "i'd</w>": 424,
    "i'll</w>": 425,
    "i'm</w>": 426,
    "i've</w>": 427,
    "i</w>": 428,
    "ic": 429,
    "id</w>": 430,
    "ide": 431,
    "ie": 432,
    "if</w>": 433,
    "il": 434,
    "il</w>": 435,
    "ile.</w>": 436,
    "imagin": 437,
    "imagined</w>": 438,
    "importan": 439,
    "important</w>": 440,
    "in": 441,
    "in.</w>": 442,
    "in</w>": 443,
    "ind</w>": 444,
    "ing": 445,
    "ing.</w>": 446,
    "ing</w>": 447,
    "inst": 448,
    "int": 449,
    "interest": 450,
    "interesting.</w>": 451,
    "interesting</w>": 452,
    "into</w>": 453,
    "investig": 454,
    "iny</w>": 455,
    "is.</w>": 456,
    "is</w>": 457,
    "it": 458,
    "it's</w>": 459,
    "it.</w>": 460,
    "it</w>": 461,
    "ither</w>": 462,
    "its.</w>": 463,
    "its</w>": 464,
    "j": 465,
    "jo": 466,
    "just</w>": 467,
    "k": 468,
    "k.</w>": 469,
    "k</w>": 470,
    "ke.</w>": 471,
    "ke</w>": 472,
    "kee": 473,
    "keep</w>": 474,
    "kes.</w>": 475,
    "kes</w>": 476,
    "king.</w>": 477,
    "king</w>": 478,
    "know.</w>": 479,
    "know</w>": 480,
    "ks</w>": 481,
    "l": 482,
    "la": 483,
    "last</w>": 484,
    "later</w>": 485,
    "laugh": 486,
    "ld</w>": 487,
    "le": 488,
    "le.</w>": 489,
    "le</w>": 490,
    "leas": 491,
    "les</w>": 492,
    "let</w>": 493,
    "li": 494,
    "lick": 495,
    "life.</w>": 496,
    "life</w>": 497,
    "ligh": 498,
    "light</w>": 499,
    "like</w>": 500,
    "lit": 501,
    "little.</w>": 502,
    "little</w>": 503,
    "live.</w>": 504,
    "live</w>": 505,
    "ll": 506,
    "ll.</w>": 507,
    "ll</w>": 508,
    "lly.</w>": 509,
    "lly</w>": 510,
    "lo": 511,
    "log.</w>": 512,
    "log</w>": 513,
    "lon": 514,
    "lonely</w>": 515,
    "long</w>": 516,
    "loo": 517,
    "look": 518,
    "look</w>": 519,
    "looking</w>": 520,
    "looks</w>": 521,
    "lot</w>": 522,
    "lots</w>": 523,
    "loud</w>": 524,
    "love</w>": 525,
    "ly.</w>": 526,
    "ly</w>": 527,
    "m": 528,
    "m.</w>": 529,
    "m</w>": 530,
    "ma": 531,
    "make</w>": 532,
    "makes</w>": 533,
    "many</w>": 534,
    "may": 535,
    "maybe</w>": 536,
    "mb": 537,
    "me": 538,
    "me.</w>": 539,
    "me</w>": 540,
    "mean": 541,
    "mean</w>": 542,
    "meaning</w>": 543,
    "means</w>": 544,
    "med</w>": 545,
    "memor": 546,
    "memory.</w>": 547,
    "memory</w>": 548,
    "ment.</w>": 549,
    "mi": 550,
    "midd": 551,
    "middle.</w>": 552,
    "might</w>": 553,
    "min": 554,
    "mind</w>": 555,
    "mm": 556,
    "mo": 557,
    "mor": 558,
    "more</w>": 559,
    "most": 560,
    "most</w>": 561,
    "mou": 562,
    "mouth</w>": 563,
    "mov": 564,
    "move</w>": 565,
    "moving.</w>": 566,
    "moving</w>": 567,
    "mp": 568,
    "mp.</w>": 569,
    "mp</w>": 570,
    "ms</w>": 571,
    "mu": 572,
    "much.</w>": 573,
    "music": 574,
    "music</w>": 575,
    "my": 576,
    "my</w>": 577,
    "myster": 578,
    "n": 579,
    "n't</w>": 580,
    "n.</w>": 581,
    "n</w>": 582,
    "na": 583,
    "name</w>": 584,
    "named</w>": 585,
    "ne": 586,
    "near</w>": 587,
    "need</w>": 588,
    "never</w>": 589,
    "new</w>": 590,
    "next</w>": 591,
    "ni": 592,
    "nice.</w>": 593,
    "nice</w>": 594,
    "night.</w>": 595,
    "night</w>": 596,
    "no": 597,
    "no</w>": 598,
    "noi": 599,
    "norm": 600,
    "normal.</w>": 601,
    "not</w>": 602,
    "nothing</w>": 603,
    "notic": 604,
    "notice</w>": 605,
    "noticed</w>": 606,
    "now.</w>": 607,
    "now</w>": 608,
    "o": 609,
    "o</w>": 610,
    "of": 611,
    "of</w>": 612,
    "oh.</w>": 613,
    "oh</w>": 614,
    "ok.</w>": 615,
    "ok</w>": 616,
    "old</w>": 617,
    "on": 618,
    "on't</w>": 619,
    "on.</w>": 620,
    "on</w>": 621,
    "once.</w>": 622,
    "ond</w>": 623,
    "one.</w>": 624,
    "one</w>": 625,
    "ones.</w>": 626,
    "ones</w>": 627,
    "ong</w>": 628,
    "only</w>": 629,
    "oo": 630,
    "ool": 631,
    "op": 632,
    "or": 633,
    "or</w>": 634,
    "orit": 635,
    "ou": 636,
    "ough.</w>": 637,
    "oun": 638,
    "ound</w>": 639,
    "our</w>": 640,
    "ous.</w>": 641,
    "ous</w>": 642,
    "out": 643,
    "out.</w>": 644,
    "out</w>": 645,
    "outside.</w>": 646,
    "outside</w>": 647,
    "ow": 648,
    "ow.</w>": 649,
    "ow</w>": 650,
    "owing</w>": 651,
    "oxyg": 652,
    "p": 653,
    "p.</w>": 654,
    "p</w>": 655,
    "part</w>": 656,
    "pe": 657,
    "pe</w>": 658,
    "pebb": 659,
    "pelle": 660,
    "per": 661,
    "ph": 662,
    "pie": 663,
    "pl": 664,
    "pla": 665,
    "plan": 666,
    "plant.</w>": 667,
    "plant</w>": 668,
    "plants</w>": 669,
    "please.</w>": 670,
    "please</w>": 671,
    "po": 672,
    "poo": 673,
    "poop</w>": 674,
    "pp": 675,
    "pped</w>": 676,
    "pre": 677,
    "pres": 678,
    "pretty</w>": 679,
    "pri": 680,
    "pro": 681,
    "probably</w>": 682,
    "ps</w>": 683,
    "pu": 684,
    "purpo": 685,
    "purpose</w>": 686,
    "qu": 687,
    "quie": 688,
    "quiet.</w>": 689,
    "quiet</w>": 690,
    "r": 691,
    "r.</w>": 692,
    "r</w>": 693,
    "ra": 694,
    "rain.</w>": 695,
    "rain</w>": 696,
    "ran": 697,
    "re": 698,
    "re</w>": 699,
    "rea": 700,
    "ready</w>": 701,
    "real</w>": 702,
    "really</w>": 703,
    "reco": 704,
    "red</w>": 705,
    "reflecti": 706,
    "reflection</w>": 707,
    "remember.</w>": 708,
    "remember</w>": 709,
    "rest.</w>": 710,
    "rest</w>": 711,
    "ri": 712,
    "ried</w>": 713,
    "right.</w>": 714,
    "right</w>": 715,
    "ro": 716,
    "rock.</w>": 717,
    "rock</w>": 718,
    "ru": 719,
    "s": 720,
    "s.</w>": 721,
    "s</w>": 722,
    "sa": 723,
    "saf": 724,
    "same</w>": 725,
    "say</w>": 726,
    "sc": 727,
    "sca": 728,
    "scales</w>": 729,
    "scar": 730,
    "scare</w>": 731,
    "scared</w>": 732,
    "scares</w>": 733,
    "se": 734,
    "se.</w>": 735,
    "se</w>": 736,
    "season": 737,
    "seasons</w>": 738,
    "second</w>": 739,
    "sed</w>": 740,
    "see": 741,
    "see</w>": 742,
    "seem</w>": 743,
    "seems</w>": 744,
    "sel": 745,
    "self</w>": 746,
    "sh": 747,
    "sh</w>": 748,
    "sha": 749,
    "shadow.</w>": 750,
    "shap": 751,
    "shapes.</w>": 752,
    "shi": 753,
    "shipwre": 754,
    "shoo": 755,
    "should</w>": 756,
    "shri": 757,
    "shrimp.</w>": 758,
    "si": 759,
    "sick</w>": 760,
    "side.</w>": 761,
    "side</w>": 762,
    "sing</w>": 763,
    "singing</w>": 764,
    "sit": 765,
    "sk": 766,
    "skull</w>": 767,
    "sl": 768,
    "slee": 769,
    "sleep": 770,
    "sleep</w>": 771,
    "sleeping</w>": 772,
    "slow": 773,
    "slow</w>": 774,
    "sma": 775,
    "small.</w>": 776,
    "small</w>": 777,
    "smart</w>": 778,
    "sna": 779,
    "snail</w>": 780,
    "so": 781,
    "so.</w>": 782,
    "so</w>": 783,
    "sof": 784,
    "soft</w>": 785,
    "some</w>": 786,
    "someone</w>": 787,
    "something.</w>": 788,
    "something</w>": 789,
    "sometimes.</w>": 790,
    "sometimes</w>": 791,
    "sor": 792,
    "sorr": 793,
    "sorry</w>": 794,
    "soun": 795,
    "sound</w>": 796,
    "sounds</w>": 797,
    "sp": 798,
    "spe": 799,
    "spect</w>": 800,
    "spot.</w>": 801,
    "spot</w>": 802,
    "ss</w>": 803,
    "st": 804,
    "st.</w>": 805,
    "st</w>": 806,
    "sta": 807,
    "star": 808,
    "stared</w>": 809,
    "stay</w>": 810,
    "sti": 811,
    "stiff.</w>": 812,
    "still.</w>": 813,
    "still</w>": 814,
    "sto": 815,
    "su": 816,
    "sudd": 817,
    "sur": 818,
    "swam</w>": 819,
    "swim.</w>": 820,
    "swim</w>": 821,
    "swimm": 822,
    "swimming.</w>": 823,
    "swimming</w>": 824,
    "t": 825,
    "t.</w>": 826,
    "t</w>": 827,
    "ta": 828,
    "tail</w>": 829,
    "take</w>": 830,
    "tal": 831,
    "talk</w>": 832,
    "tank.</w>": 833,
    "tank</w>": 834,
    "tankmate</w>": 835,
    "tap</w>": 836,
    "tapped</w>": 837,
    "tast": 838,
    "taste</w>": 839,
    "tastes</w>": 840,
    "te": 841,
    "tea": 842,
    "tell.</w>": 843,
    "tell</w>": 844,
    "temp": 845,
    "temper": 846,
    "temperature</w>": 847,
    "ten": 848,
    "ter": 849,
    "ter.</w>": 850,
    "ter</w>": 851,
    "terrib": 852,
    "th": 853,
    "th.</w>": 854,
    "th</w>": 855,
    "than": 856,
    "than</w>": 857,
    "thank</w>": 858,
    "that's</w>": 859,
    "that.</w>": 860,
    "that</w>": 861,
    "the": 862,
    "the</w>": 863,
    "them.</w>": 864,
    "them</w>": 865,
    "then</w>": 866,
    "ther": 867,
    "ther</w>": 868,
    "there's</w>": 869,
    "there.</w>": 870,
    "there</w>": 871,
    "thermome": 872,
    "they're</w>": 873,
    "they</w>": 874,
    "thin": 875,
    "thing.</w>": 876,
    "thing</w>": 877,
    "things.</w>": 878,
    "things</w>": 879,
    "think.</w>": 880,
    "think</w>": 881,
    "thinking</w>": 882,
    "this.</w>": 883,
    "this</w>": 884,
    "those</w>": 885,
    "though": 886,
    "thought</w>": 887,
    "thr": 888,
    "through</w>": 889,
    "ti": 890,
    "time": 891,
    "time.</w>": 892,
    "time</w>": 893,
    "ting</w>": 894,
    "tiny</w>": 895,
    "tired</w>": 896,
    "tly.</w>": 897,
    "tly</w>": 898,
    "to": 899,
    "to</w>": 900,
    "today.</w>": 901,
    "today</w>": 902,
    "tomorr": 903,
    "tomorrow</w>": 904,
    "too": 905,
    "too.</w>": 906,
    "too</w>": 907,
    "top.</w>": 908,
    "touch</w>": 909,
    "tr": 910,
    "treasure</w>": 911,
    "tried</w>": 912,
    "true</w>": 913,
    "ts.</w>": 914,
    "ts</w>": 915,
    "tt": 916,
    "tter.</w>": 917,
    "tu": 918,
    "tv": 919,
    "tv</w>": 920,
    "tw": 921,
    "two</w>": 922,
    "u": 923,
    "ue</w>": 924,
    "umb": 925,
    "un": 926,
    "under</w>": 927,
    "underst": 928,
    "understand</w>": 929,
    "unn": 930,
    "unny</w>": 931,
    "up</w>": 932,
    "ur": 933,
    "urr": 934,
    "urry</w>": 935,
    "used</w>": 936,
    "ust</w>": 937,
    "v": 938,
    "ve": 939,
    "ve.</w>": 940,
    "ve</w>": 941,
    "vel": 942,
    "ver": 943,
    "ver</w>": 944,
    "very</w>": 945,
    "ves</w>": 946,
    "vet</w>": 947,
    "vi": 948,
    "vibr": 949,
    "vibration": 950,
    "vibrations.</w>": 951,
    "vibrations</w>": 952,
    "visit": 953,
    "w": 954,
    "w</w>": 955,
    "wa": 956,
    "wait": 957,
    "wall.</w>": 958,
    "wall</w>": 959,
    "wan": 960,
    "want</w>": 961,
    "wants</w>": 962,
    "war": 963,
    "warm": 964,
    "warm</w>": 965,
    "was</w>": 966,
    "wat": 967,
    "watch": 968,
    "watch</w>": 969,
    "watching</w>": 970,
    "water.</w>": 971,
    "water</w>": 972,
    "way.</w>": 973,
    "we": 974,
    "we</w>": 975,
    "weather.</w>": 976,
    "weather</w>": 977,
    "well</w>": 978,
    "were</w>": 979,
    "wet.</w>": 980,
    "wet</w>": 981,
    "wh": 982,
    "what's</w>": 983,
    "what</w>": 984,
    "when</w>": 985,
    "where</w>": 986,
    "whi": 987,
    "which</w>": 988,
    "while.</w>": 989,
    "who": 990,
    "who's</w>": 991,
    "who</w>": 992,
    "whole</w>": 993,
    "why</w>": 994,
    "wi": 995,
    "will</w>": 996,
    "win": 997,
    "with</w>": 998,
    "wonder</w>": 999,
    "wor": 1000,
    "work.</w>": 1001,
    "work</w>": 1002,
    "world</w>": 1003,
    "would</w>": 1004,
    "x": 1005,
    "x</w>": 1006,
    "y": 1007,
    "y.</w>": 1008,
    "y</w>": 1009,
    "ye": 1010,
    "yes.</w>": 1011,
    "yes</w>": 1012,
    "yester": 1013,
    "yesterday</w>": 1014,
    "you": 1015,
    "you're</w>": 1016,
    "you.</w>": 1017,
    "you</w>": 1018,
    "your</w>": 1019,
    "yourself</w>": 1020,
    "ys.</w>": 1021,
    "ys</w>": 1022,
    "z": 1023,
    "ze</w>": 1024
  },
  "merges": [
    [
      "e",
      "</w>"
    ],
    [
      ".",
      "</w>"
    ],
    [
      "t",
      "h"
    ],
    [
      "t",
      "</w>"
    ],
    [
      "s",
      "</w>"
    ],
    [
      "o",
      "u"
    ],
    [
      "i",
      "n"
    ],
    [
      "e",
      "r"
    ],
    [
      "th",
      "e</w>"
    ],
    [
      "i",
      "</w>"
    ],
    [
      "d",
      "</w>"
    ],
    [
      "y",
      "</w>"
    ],
    [
      "y",
      "ou"
    ],
    [
      "a",
      "n"
    ],
    [
      "in",
      "g"
    ],
    [
      "a",
      "t"
    ],
    [
      "o",
      "</w>"
    ],
    [
      "you",
      "</w>"
    ],
    [
      "a",
      "r"
    ],
    [
      "e",
      ".</w>"
    ],
    [
      "ing",
      "</w>"
    ],
    [
      "i",
      "s</w>"
    ],
    [
      "o",
      "r"
    ],
    [
      "e",
      "n"
    ],
    [
      "o",
      "n"
    ],
    [
      "w",
      "h"
    ],
    [
      "a",
      "t</w>"
    ],
    [
      "a",
      "</w>"
    ],
    [
      "i",
      "t"
    ],
    [
      "l",
      "l"
    ],
    [
      "er",
      "</w>"
    ],
    [
      "o",
      "o"
    ],
    [
      "'",
      "s</w>"
    ],
    [
      "m",
      "</w>"
    ],
    [
      "r",
      "e"
    ],
    [
      "o",
      "w"
    ],
    [
      "l",
      "i"
    ],
    [
      "s",
      ".</w>"
    ],
    [
      "s",
      "h"
    ],
    [
      "k",
      "</w>"
    ],
    [
      "d",
      "o</w>"
    ],
    [
      "f",
      "i"
    ],
    [
      "a",
      "s"
    ],
    [
      "m",
      "e"
    ],
    [
      "g",
      "h"
    ],
    [
      "w",
      "at"
    ],
    [
      "ll",
      "</w>"
    ],
    [
      "m",
      "y</w>"
    ],
    [
      "ar",
      "e</w>"
    ],
    [
      "l",
      "e"
    ],
    [
      "i",
      "t</w>"
    ],
    [
      "i",
      "'"
    ],
    [
      "e",
      "d</w>"
    ],
    [
      "t",
      "i"
    ],
    [
      "a",
      "l"
    ],
    [
      "fi",
      "sh"
    ],
    [
      "t",
      "o</w>"
    ],
    [
      "k",
      "e</w>"
    ],
    [
      "ow",
      "</w>"
    ],
    [
      "s",
      "t</w>"
    ],
    [
      "y",
      ".</w>"
    ],
    [
      "d",
      ".</w>"
    ],
    [
      "b",
      "u"
    ],
    [
      "'",
      "t</w>"
    ],
    [
      "v",
      "e</w>"
    ],
    [
      "an",
      "</w>"
    ],
    [
      "en",
      "</w>"
    ],
    [
      "h",
      "a"
    ],
    [
      "e",
      "s</w>"
    ],
    [
      "r",
      "i"
    ],
    [
      "m",
      "e</w>"
    ],
    [
      "er",
      ".</w>"
    ],
    [
      "w",
      "i"
    ],
    [
      "m",
      "a"
    ],
    [
      "b",
      "e"
    ],
    [
      "n",
      "e"
    ],
    [
      "or",
      "</w>"
    ],
    [
      "an",
      "d</w>"
    ],
    [
      "s",
      "e"
    ],
    [
      "in",
      "</w>"
    ],
    [
      "w",
      "a"
    ],
    [
      "wh",
      "at</w>"
    ],
    [
      "t",
      ".</w>"
    ],
    [
      "li",
      "ke</w>"
    ],
    [
      "p",
      "p"
    ],
    [
      "gh",
      "t</w>"
    ],
    [
      "wat",
      "er</w>"
    ],
    [
      "at",
      "'s</w>"
    ],
    [
      "s",
      "o"
    ],
    [
      "fish",
      "</w>"
    ],
    [
      "m",
      "e.</w>"
    ],
    [
      "it",
      "'s</w>"
    ],
    [
      "c",
      "h"
    ],
    [
      "f",
      "oo"
    ],
    [
      "f",
      "</w>"
    ],
    [
      "s",
      "i"
    ],
    [
      "ou",
      "t</w>"
    ],
    [
      "s",
      "t"
    ],
    [
      "d",
      "a"
    ],
    [
      "i'",
      "m</w>"
    ],
    [
      "f",
      "e"
    ],
    [
      "on",
      "'t</w>"
    ],
    [
      "d",
      "on't</w>"
    ],
    [
      "c",
      "an</w>"
    ],
    [
      "a",
      "b"
    ],
    [
      "t",
      "o"
    ],
    [
      "e",
      "l"
    ],
    [
      "n",
      "i"
    ],
    [
      "l",
      "e</w>"
    ],
    [
      "th",
      "ing</w>"
    ],
    [
      "f",
      "or</w>"
    ],
    [
      "re",
      "a"
    ],
    [
      "b",
      "e</w>"
    ],
    [
      "l",
      "o"
    ],
    [
      "ing",
      ".</w>"
    ],
    [
      "th",
      "at's</w>"
    ],
    [
      "you",
      "r"
    ],
    [
      "er",
      "e</w>"
    ],
    [
      "c",
      "o"
    ],
    [
      "bu",
      "t</w>"
    ],
    [
      "ab",
      "out</w>"
    ],
    [
      "k",
      ".</w>"
    ],
    [
      "th",
      "at</w>"
    ],
    [
      "l",
      "as"
    ],
    [
      "u",
      "st</w>"
    ],
    [
      "so",
      "me"
    ],
    [
      "s",
      "wi"
    ],
    [
      "ha",
      "ve</w>"
    ],
    [
      "l",
      "oo"
    ],
    [
      "wh",
      "en</w>"
    ],
    [
      "n",
      "ow</w>"
    ],
    [
      "j",
      "ust</w>"
    ],
    [
      "g",
      "las"
    ],
    [
      "l",
      "d</w>"
    ],
    [
      "your",
      "</w>"
    ],
    [
      "t",
      "an"
    ],
    [
      "d",
      "i"
    ],
    [
      "g",
      "e"
    ],
    [
      "r",
      "e</w>"
    ],
    [
      "n",
      "o"
    ],
    [
      "th",
      "in"
    ],
    [
      "o",
      "f</w>"
    ],
    [
      "r",
      "a"
    ],
    [
      "p",
      "</w>"
    ],
    [
      "th",
      "e"
    ],
    [
      "b",
      "i"
    ],
    [
      "g",
      "</w>"
    ],
    [
      "v",
      "er"
    ],
    [
      "b",
      "b"
    ],
    [
      "wat",
      "er.</w>"
    ],
    [
      "fe",
      "el"
    ],
    [
      "it",
      ".</w>"
    ],
    [
      "se",
      "e</w>"
    ],
    [
      "d",
      "e</w>"
    ],
    [
      "p",
      "l"
    ],
    [
      "ar",
      "</w>"
    ],
    [
      "t",
      "er</w>"
    ],
    [
      "w",
      "e"
    ],
    [
      "da",
      "y</w>"
    ],
    [
      "foo",
      "d.</w>"
    ],
    [
      "m",
      "o"
    ],
    [
      "g",
      "u"
    ],
    [
      "r",
      "o"
    ],
    [
      "e",
      "s.</w>"
    ],
    [
      "k",
      "now</w>"
    ],
    [
      "glas",
      "s</w>"
    ],
    [
      "h",
      "e"
    ],
    [
      "ow",
      ".</w>"
    ],
    [
      "g",
      "oo"
    ],
    [
      "bu",
      "bb"
    ],
    [
      "i'",
      "ll</w>"
    ],
    [
      "t",
      "e"
    ],
    [
      "tan",
      "k</w>"
    ],
    [
      "h",
      "ow</w>"
    ],
    [
      "er",
      "e"
    ],
    [
      "ha",
      "pp"
    ],
    [
      "ou",
      "n"
    ],
    [
      "foo",
      "d</w>"
    ],
    [
      "li",
      "ght</w>"
    ],
    [
      "f",
      "ri"
    ],
    [
      "fri",
      "en"
    ],
    [
      "gu",
      "pp"
    ],
    [
      "wa",
      "s</w>"
    ],
    [
      "e",
      "x"
    ],
    [
      "c",
      "e.</w>"
    ],
    [
      "s",
      "c"
    ],
    [
      "g",
      "o"
    ],
    [
      "fi",
      "l"
    ],
    [
      "si",
      "de</w>"
    ],
    [
      "'",
      "re</w>"
    ],
    [
      "ou",
      "t"
    ],
    [
      "t",
      "a"
    ],
    [
      "bubb",
      "le"
    ],
    [
      "as",
      "t"
    ],
    [
      "s",
      "ma"
    ],
    [
      "fish",
      ".</w>"
    ],
    [
      "thin",
      "k</w>"
    ],
    [
      "m",
      "or"
    ],
    [
      "s",
      "a"
    ],
    [
      "s",
      "p"
    ],
    [
      "u",
      "n"
    ],
    [
      "i",
      "l"
    ],
    [
      "th",
      "</w>"
    ],
    [
      "d",
      "o"
    ],
    [
      "pl",
      "an"
    ],
    [
      "u",
      "r"
    ],
    [
      "f",
      "f"
    ],
    [
      "c",
      "e</w>"
    ],
    [
      "f",
      "in"
    ],
    [
      "ge",
      "t</w>"
    ],
    [
      "b",
      "r"
    ],
    [
      "l",
      "it"
    ],
    [
      "n",
      "ow.</w>"
    ],
    [
      "loo",
      "k"
    ],
    [
      "m",
      "m"
    ],
    [
      "m",
      "p"
    ],
    [
      "ou",
      "gh"
    ],
    [
      "n",
      "a"
    ],
    [
      "c",
      "le"
    ],
    [
      "w",
      "or"
    ],
    [
      "on",
      "</w>"
    ],
    [
      "out",
      "side</w>"
    ],
    [
      "bi",
      "g</w>"
    ],
    [
      "sma",
      "ll</w>"
    ],
    [
      "m",
      "u"
    ],
    [
      "the",
      "y</w>"
    ],
    [
      "e",
      "d.</w>"
    ],
    [
      "k",
      "es</w>"
    ],
    [
      "e",
      "ver"
    ],
    [
      "swi",
      "m</w>"
    ],
    [
      "m",
      ".</w>"
    ],
    [
      "t",
      "s</w>"
    ],
    [
      "lit",
      "t"
    ],
    [
      "fil",
      "ter</w>"
    ],
    [
      "w",
      "</w>"
    ],
    [
      "b",
      "a"
    ],
    [
      "ere",
      "'s</w>"
    ],
    [
      "feel",
      "</w>"
    ],
    [
      "f",
      "a"
    ],
    [
      "ne",
      "ar</w>"
    ],
    [
      "b",
      "rea"
    ],
    [
      "t",
      "ast"
    ],
    [
      "d",
      "s</w>"
    ],
    [
      "some",
      "thing</w>"
    ],
    [
      "gupp",
      "y</w>"
    ],
    [
      "ti",
      "me</w>"
    ],
    [
      "l",
      "e.</w>"
    ],
    [
      "ll",
      ".</w>"
    ],
    [
      "s",
      "e</w>"
    ],
    [
      "er",
      "e.</w>"
    ],
    [
      "c",
      "k</w>"
    ],
    [
      "ch",
      "</w>"
    ],
    [
      "on",
      "e</w>"
    ],
    [
      "th",
      "ere's</w>"
    ],
    [
      "bubble",
      "s</w>"
    ],
    [
      "c",
      "it"
    ],
    [
      "swi",
      "mm"
    ],
    [
      "ou",
      "ld</w>"
    ],
    [
      "s",
      "o</w>"
    ],
    [
      "v",
      "i"
    ],
    [
      "th",
      "ing.</w>"
    ],
    [
      "at",
      ".</w>"
    ],
    [
      "w",
      "ar"
    ],
    [
      "g",
      "a"
    ],
    [
      "wh",
      "o"
    ],
    [
      "th",
      "ing"
    ],
    [
      "l",
      "y</w>"
    ],
    [
      "e",
      "at</w>"
    ],
    [
      "you",
      "'re</w>"
    ],
    [
      "co",
      "l"
    ],
    [
      "b",
      "or"
    ],
    [
      "loo",
      "k</w>"
    ],
    [
      "goo",
      "d</w>"
    ],
    [
      "you",
      ".</w>"
    ],
    [
      "di",
      "ff"
    ],
    [
      "diff",
      "er"
    ],
    [
      "differ",
      "en"
    ],
    [
      "d",
      "rea"
    ],
    [
      "ma",
      "y"
    ],
    [
      "ex",
      "cit"
    ],
    [
      "wh",
      "at's</w>"
    ],
    [
      "th",
      "ere</w>"
    ],
    [
      "da",
      "y.</w>"
    ],
    [
      "b",
      "o"
    ],
    [
      "sc",
      "ar"
    ],
    [
      "s",
      "le"
    ],
    [
      "sle",
      "e"
    ],
    [
      "me",
      "an"
    ],
    [
      "no",
      "t</w>"
    ],
    [
      "a",
      "m</w>"
    ],
    [
      "ne",
      "w</w>"
    ],
    [
      "ti",
      "me"
    ],
    [
      "lo",
      "ve</w>"
    ],
    [
      "to",
      "day</w>"
    ],
    [
      "th",
      "er</w>"
    ],
    [
      "a",
      "ll</w>"
    ],
    [
      "ri",
      "ght</w>"
    ],
    [
      "c",
      "i"
    ],
    [
      "h",
      "o"
    ],
    [
      "al",
      "</w>"
    ],
    [
      "litt",
      "le</w>"
    ],
    [
      "s",
      "oun"
    ],
    [
      "ti",
      "me.</w>"
    ],
    [
      "l",
      "a"
    ],
    [
      "may",
      "be</w>"
    ],
    [
      "c",
      "an"
    ],
    [
      "ever",
      "y"
    ],
    [
      "h",
      "i"
    ],
    [
      "ll",
      "y</w>"
    ],
    [
      "c",
      "k.</w>"
    ],
    [
      "y",
      "s</w>"
    ],
    [
      "al",
      "wa"
    ],
    [
      "ma",
      "kes</w>"
    ],
    [
      "b",
      "y</w>"
    ],
    [
      "m",
      "b"
    ],
    [
      "ough",
      "</w>"
    ],
    [
      "ch",
      "an"
    ],
    [
      "il",
      "</w>"
    ],
    [
      "f",
      "ro"
    ],
    [
      "mu",
      "si"
    ],
    [
      "musi",
      "c"
    ],
    [
      "alwa",
      "ys</w>"
    ],
    [
      "le",
      "as"
    ],
    [
      "th",
      "r"
    ],
    [
      "w",
      "an"
    ],
    [
      "t",
      "al"
    ],
    [
      "who",
      "le</w>"
    ],
    [
      "i",
      "f</w>"
    ],
    [
      "in",
      "d</w>"
    ],
    [
      "l",
      "ou"
    ],
    [
      "swimm",
      "ing</w>"
    ],
    [
      "music",
      "</w>"
    ],
    [
      "p",
      "leas"
    ],
    [
      "t",
      "v"
    ],
    [
      "happ",
      "en"
    ],
    [
      "v",
      "er</w>"
    ],
    [
      "o",
      "k</w>"
    ],
    [
      "d",
      "y</w>"
    ],
    [
      "ni",
      "ght</w>"
    ],
    [
      "n",
      "'t</w>"
    ],
    [
      "te",
      "ll</w>"
    ],
    [
      "can",
      "'t</w>"
    ],
    [
      "p",
      ".</w>"
    ],
    [
      "s",
      "ti"
    ],
    [
      "t",
      "t"
    ],
    [
      "wi",
      "th</w>"
    ],
    [
      "h",
      "ere</w>"
    ],
    [
      "be",
      "st</w>"
    ],
    [
      "plan",
      "t</w>"
    ],
    [
      "tast",
      "e</w>"
    ],
    [
      "some",
      "time"
    ],
    [
      "at",
      "i"
    ],
    [
      "wh",
      "ere</w>"
    ],
    [
      "y",
      "es.</w>"
    ],
    [
      "gh",
      "t.</w>"
    ],
    [
      "g",
      "re"
    ],
    [
      "frien",
      "d</w>"
    ],
    [
      "i",
      "e"
    ],
    [
      "s",
      "na"
    ],
    [
      "en",
      "t"
    ],
    [
      "be",
      "en</w>"
    ],
    [
      "do",
      "es</w>"
    ],
    [
      "brea",
      "the</w>"
    ],
    [
      "wi",
      "ll</w>"
    ],
    [
      "f",
      "as"
    ],
    [
      "tv",
      "</w>"
    ],
    [
      "mo",
      "v"
    ],
    [
      "s",
      "l"
    ],
    [
      "ra",
      "in</w>"
    ],
    [
      "or",
      "it"
    ],
    [
      "look",
      "ing</w>"
    ],
    [
      "w",
      "e</w>"
    ],
    [
      "h",
      "ere.</w>"
    ],
    [
      "h",
      "u"
    ],
    [
      "feel",
      "s</w>"
    ],
    [
      "ni",
      "ce.</w>"
    ],
    [
      "p",
      "e"
    ],
    [
      "be",
      "ing</w>"
    ],
    [
      "sa",
      "y</w>"
    ],
    [
      "a",
      "f"
    ],
    [
      "ar",
      "t</w>"
    ],
    [
      "in",
      "t"
    ],
    [
      "d",
      "e"
    ],
    [
      "c",
      "on"
    ],
    [
      "f",
      "or"
    ],
    [
      "li",
      "f"
    ],
    [
      "we",
      "a"
    ],
    [
      "k",
      "ing</w>"
    ],
    [
      "chan",
      "g"
    ],
    [
      "fro",
      "m</w>"
    ],
    [
      "in",
      ".</w>"
    ],
    [
      "ni",
      "ce</w>"
    ],
    [
      "ne",
      "ed</w>"
    ],
    [
      "c",
      "a"
    ],
    [
      "di",
      "d</w>"
    ],
    [
      "al",
      "ga"
    ],
    [
      "alga",
      "e</w>"
    ],
    [
      "fa",
      "v"
    ],
    [
      "fav",
      "orit"
    ],
    [
      "o",
      "k.</w>"
    ],
    [
      "drea",
      "m</w>"
    ],
    [
      "re",
      "me"
    ],
    [
      "reme",
      "mb"
    ],
    [
      "so",
      "me</w>"
    ],
    [
      "g",
      "r"
    ],
    [
      "tal",
      "k</w>"
    ],
    [
      "s",
      "u"
    ],
    [
      "i'",
      "ve</w>"
    ],
    [
      "vi",
      "br"
    ],
    [
      "sp",
      "o"
    ],
    [
      "m",
      "i"
    ],
    [
      "to",
      "day.</w>"
    ],
    [
      "g",
      "i"
    ],
    [
      "f",
      "u"
    ],
    [
      "p",
      "re"
    ],
    [
      "thing",
      "s</w>"
    ],
    [
      "ati",
      "on"
    ],
    [
      "at",
      "e</w>"
    ],
    [
      "soun",
      "ds</w>"
    ],
    [
      "favorit",
      "e</w>"
    ],
    [
      "t",
      "er.</w>"
    ],
    [
      "mean",
      "s</w>"
    ],
    [
      "se",
      "l"
    ],
    [
      "d",
      "ar"
    ],
    [
      "slee",
      "p</w>"
    ],
    [
      "l",
      "y.</w>"
    ],
    [
      "col",
      "or"
    ],
    [
      "al",
      ".</w>"
    ],
    [
      "go",
      "ing</w>"
    ],
    [
      "sna",
      "il</w>"
    ],
    [
      "lou",
      "d</w>"
    ],
    [
      "scar",
      "ed</w>"
    ],
    [
      "look",
      "s</w>"
    ],
    [
      "cle",
      "an</w>"
    ],
    [
      "thr",
      "ough</w>"
    ],
    [
      "every",
      "thing</w>"
    ],
    [
      "sh",
      "a"
    ],
    [
      "sel",
      "f</w>"
    ],
    [
      "re",
      "d</w>"
    ],
    [
      "bi",
      "g"
    ],
    [
      "be",
      "h"
    ],
    [
      "beh",
      "ind</w>"
    ],
    [
      "glas",
      "s.</w>"
    ],
    [
      "oun",
      "d</w>"
    ],
    [
      "bor",
      "ed</w>"
    ],
    [
      "en",
      "t</w>"
    ],
    [
      "i",
      "d</w>"
    ],
    [
      "s",
      "s</w>"
    ],
    [
      "b",
      "y"
    ],
    [
      "ur",
      "r"
    ],
    [
      "n",
      "</w>"
    ],
    [
      "g",
      "o</w>"
    ],
    [
      "pleas",
      "e</w>"
    ],
    [
      "an",
      "y</w>"
    ],
    [
      "re",
      "st</w>"
    ],
    [
      "c",
      "or"
    ],
    [
      "se",
      "e"
    ],
    [
      "on",
      "g</w>"
    ],
    [
      "a",
      "s</w>"
    ],
    [
      "int",
      "ere"
    ],
    [
      "intere",
      "st"
    ],
    [
      "mor",
      "e</w>"
    ],
    [
      "un",
      "d"
    ],
    [
      "c",
      "at</w>"
    ],
    [
      "m",
      "ou"
    ],
    [
      "c",
      "k"
    ],
    [
      "u",
      "re</w>"
    ],
    [
      "some",
      "one</w>"
    ],
    [
      "q",
      "u"
    ],
    [
      "lif",
      "e</w>"
    ],
    [
      "your",
      "self</w>"
    ],
    [
      "hu",
      "m"
    ],
    [
      "j",
      "o"
    ],
    [
      "goo",
      "d"
    ],
    [
      "c",
      "ti"
    ],
    [
      "rememb",
      "er</w>"
    ],
    [
      "wan",
      "t</w>"
    ],
    [
      "st",
      "ar"
    ],
    [
      "gupp",
      "y.</w>"
    ],
    [
      "co",
      "ld</w>"
    ],
    [
      "p",
      "e</w>"
    ],
    [
      "th",
      "en</w>"
    ],
    [
      "fin",
      "e.</w>"
    ],
    [
      "p",
      "o"
    ],
    [
      "f",
      "lo"
    ],
    [
      "o",
      "h"
    ],
    [
      "on",
      "ce.</w>"
    ],
    [
      "war",
      "m</w>"
    ],
    [
      "w",
      "ould</w>"
    ],
    [
      "thing",
      "s.</w>"
    ],
    [
      "en",
      "t.</w>"
    ],
    [
      "wea",
      "ther</w>"
    ],
    [
      "t",
      "u"
    ],
    [
      "a",
      "c"
    ],
    [
      "s",
      "t.</w>"
    ],
    [
      "b",
      "l"
    ],
    [
      "th",
      "at.</w>"
    ],
    [
      "cle",
      "an"
    ],
    [
      "in",
      "y</w>"
    ],
    [
      "fu",
      "l"
    ],
    [
      "th",
      "is</w>"
    ],
    [
      "an",
      "y"
    ],
    [
      "c",
      "lo"
    ],
    [
      "me",
      "mor"
    ],
    [
      "e",
      "ar"
    ],
    [
      "d",
      "d"
    ],
    [
      "ver",
      "y</w>"
    ],
    [
      "st",
      "er"
    ],
    [
      "sometime",
      "s.</w>"
    ],
    [
      "se",
      "as"
    ],
    [
      "seas",
      "on"
    ],
    [
      "y",
      "es</w>"
    ],
    [
      "oo",
      "l"
    ],
    [
      "pp",
      "ed</w>"
    ],
    [
      "no",
      "ti"
    ],
    [
      "qu",
      "ie"
    ],
    [
      "bubble",
      "s.</w>"
    ],
    [
      "st",
      "o"
    ],
    [
      "v",
      "e.</w>"
    ],
    [
      "the",
      "y"
    ],
    [
      "they",
      "'re</w>"
    ],
    [
      "vibr",
      "ation"
    ],
    [
      "excit",
      "ed</w>"
    ],
    [
      "g",
      "ent"
    ],
    [
      "t",
      "r"
    ],
    [
      "dar",
      "k</w>"
    ],
    [
      "d",
      "e.</w>"
    ],
    [
      "spo",
      "t</w>"
    ],
    [
      "d",
      "n't</w>"
    ],
    [
      "happ",
      "y</w>"
    ],
    [
      "fin",
      "s</w>"
    ],
    [
      "sp",
      "e"
    ],
    [
      "i",
      "s.</w>"
    ],
    [
      "c",
      "ool"
    ],
    [
      "m",
      "s</w>"
    ],
    [
      "ch",
      "e"
    ],
    [
      "differen",
      "t.</w>"
    ],
    [
      "co",
      "mp"
    ],
    [
      "th",
      "an</w>"
    ],
    [
      "a",
      "ga"
    ],
    [
      "on",
      "es</w>"
    ],
    [
      "at",
      "ing</w>"
    ],
    [
      "be",
      "t"
    ],
    [
      "wor",
      "ld</w>"
    ],
    [
      "ho",
      "pe</w>"
    ],
    [
      "af",
      "ra"
    ],
    [
      "afra",
      "id</w>"
    ],
    [
      "ma",
      "ke</w>"
    ],
    [
      "fas",
      "t</w>"
    ],
    [
      "e",
      "yes</w>"
    ],
    [
      "gi",
      "ll"
    ],
    [
      "e",
      "ver</w>"
    ],
    [
      "s",
      "ing</w>"
    ],
    [
      "s",
      "m"
    ],
    [
      "sm",
      "art</w>"
    ],
    [
      "t",
      "er"
    ],
    [
      "e",
      "s"
    ],
    [
      "bo",
      "dy</w>"
    ],
    [
      "ha",
      "s</w>"
    ],
    [
      "ri",
      "ght.</w>"
    ],
    [
      "ti",
      "red</w>"
    ],
    [
      "he",
      "ar</w>"
    ],
    [
      "ever",
      "y</w>"
    ],
    [
      "mo",
      "st</w>"
    ],
    [
      "ch",
      ".</w>"
    ],
    [
      "sa",
      "me</w>"
    ],
    [
      "ro",
      "ck</w>"
    ],
    [
      "ba",
      "ck.</w>"
    ],
    [
      "y",
      "e"
    ],
    [
      "sh",
      "</w>"
    ],
    [
      "un",
      "n"
    ],
    [
      "p",
      "ro"
    ],
    [
      "slee",
      "p"
    ],
    [
      "te",
      "mp"
    ],
    [
      "to",
      "mor"
    ],
    [
      "tomor",
      "r"
    ],
    [
      "fil",
      "ter.</w>"
    ],
    [
      "at",
      "ure</w>"
    ],
    [
      "me",
      "d</w>"
    ],
    [
      "ta",
      "ke</w>"
    ],
    [
      "to",
      "o</w>"
    ],
    [
      "ci",
      "r"
    ],
    [
      "ne",
      "x"
    ],
    [
      "nex",
      "t</w>"
    ],
    [
      "good",
      "night</w>"
    ],
    [
      "en",
      ".</w>"
    ],
    [
      "he",
      "ll"
    ],
    [
      "m",
      "ent.</w>"
    ],
    [
      "ge",
      "tt"
    ],
    [
      "gett",
      "ing</w>"
    ],
    [
      "p",
      "oo"
    ],
    [
      "c",
      "ast"
    ],
    [
      "mou",
      "th</w>"
    ],
    [
      "thin",
      "king</w>"
    ],
    [
      "v",
      "el"
    ],
    [
      "wh",
      "o</w>"
    ],
    [
      "at",
      "er</w>"
    ],
    [
      "t",
      "iny</w>"
    ],
    [
      "oh",
      "</w>"
    ],
    [
      "h",
      "ar"
    ],
    [
      "st",
      "a"
    ],
    [
      "tast",
      "es</w>"
    ],
    [
      "sc",
      "are</w>"
    ],
    [
      "c",
      "u"
    ],
    [
      "f",
      "la"
    ],
    [
      "d",
      "s.</w>"
    ],
    [
      "ri",
      "ed</w>"
    ],
    [
      "thin",
      "k.</w>"
    ],
    [
      "see",
      "m</w>"
    ],
    [
      "we",
      "ll</w>"
    ],
    [
      "litt",
      "le.</w>"
    ],
    [
      "w",
      "ere</w>"
    ],
    [
      "di",
      "dn't</w>"
    ],
    [
      "differen",
      "t</w>"
    ],
    [
      "sometime",
      "s</w>"
    ],
    [
      "n",
      "or"
    ],
    [
      "nor",
      "m"
    ],
    [
      "gre",
      "en</w>"
    ],
    [
      "c",
      "ould</w>"
    ],
    [
      "ough",
      ".</w>"
    ],
    [
      "hi",
      "de</w>"
    ],
    [
      "gill",
      "s</w>"
    ],
    [
      "so",
      "f"
    ],
    [
      "p",
      "er"
    ],
    [
      "m",
      "in"
    ],
    [
      "d",
      "ing</w>"
    ],
    [
      "pl",
      "a"
    ],
    [
      "on",
      "es.</w>"
    ],
    [
      "temp",
      "er"
    ],
    [
      "wh",
      "y</w>"
    ],
    [
      "u",
      "p</w>"
    ],
    [
      "sh",
      "ould</w>"
    ],
    [
      "frien",
      "d.</w>"
    ],
    [
      "th",
      "ere.</w>"
    ],
    [
      "temper",
      "ature</w>"
    ],
    [
      "v",
      "e"
    ],
    [
      "tomorr",
      "ow</w>"
    ],
    [
      "we",
      "t.</w>"
    ],
    [
      "sta",
      "y</w>"
    ],
    [
      "mu",
      "ch.</w>"
    ],
    [
      "ye",
      "ster"
    ],
    [
      "f",
      "re"
    ],
    [
      "e",
      "e"
    ],
    [
      "s",
      "e.</w>"
    ],
    [
      "on",
      ".</w>"
    ],
    [
      "c",
      "urr"
    ],
    [
      "co",
      "me"
    ],
    [
      "g",
      ".</w>"
    ],
    [
      "lo",
      "t</w>"
    ],
    [
      "excit",
      "ed.</w>"
    ],
    [
      "n",
      "o</w>"
    ],
    [
      "t",
      "w"
    ],
    [
      "by",
      "e</w>"
    ],
    [
      "e",
      "as"
    ],
    [
      "z",
      "e</w>"
    ],
    [
      "ff",
      ".</w>"
    ],
    [
      "p",
      "h"
    ],
    [
      "poo",
      "p</w>"
    ],
    [
      "p",
      "art</w>"
    ],
    [
      "g",
      "ra"
    ],
    [
      "gra",
      "vel"
    ],
    [
      "unn",
      "y</w>"
    ],
    [
      "at",
      "e.</w>"
    ],
    [
      "season",
      "s</w>"
    ],
    [
      "he",
      "al"
    ],
    [
      "s",
      "wa"
    ],
    [
      "swa",
      "m</w>"
    ],
    [
      "en",
      "ough</w>"
    ],
    [
      "on",
      "e.</w>"
    ],
    [
      "ne",
      "ver</w>"
    ],
    [
      "s",
      "or"
    ],
    [
      "fe",
      "l"
    ],
    [
      "fel",
      "t</w>"
    ],
    [
      "color",
      "s</w>"
    ],
    [
      "wat",
      "ch"
    ],
    [
      "t",
      "ried</w>"
    ],
    [
      "the",
      "m</w>"
    ],
    [
      "frien",
      "ds</w>"
    ],
    [
      "go",
      "es</w>"
    ],
    [
      "si",
      "ck</w>"
    ],
    [
      "re",
      "f"
    ],
    [
      "ref",
      "le"
    ],
    [
      "refle",
      "cti"
    ],
    [
      "brea",
      "thing</w>"
    ],
    [
      "wa",
      "y.</w>"
    ],
    [
      "t",
      "s.</w>"
    ],
    [
      "t",
      "ly</w>"
    ],
    [
      "le",
      "s</w>"
    ],
    [
      "ful",
      ".</w>"
    ],
    [
      "ow",
      "ing</w>"
    ],
    [
      "chang",
      "e</w>"
    ],
    [
      "ni",
      "ght.</w>"
    ],
    [
      "do",
      "es"
    ],
    [
      "does",
      "n't</w>"
    ],
    [
      "si",
      "de.</w>"
    ],
    [
      "und",
      "er"
    ],
    [
      "under",
      "st"
    ],
    [
      "tan",
      "k.</w>"
    ],
    [
      "mo",
      "ve</w>"
    ],
    [
      "d",
      "g"
    ],
    [
      "war",
      "m"
    ],
    [
      "t",
      "en"
    ],
    [
      "memor",
      "y</w>"
    ],
    [
      "bo",
      "t"
    ],
    [
      "bot",
      "to"
    ],
    [
      "goo",
      "d.</w>"
    ],
    [
      "pleas",
      "e.</w>"
    ],
    [
      "mean",
      "ing</w>"
    ],
    [
      "sof",
      "t</w>"
    ],
    [
      "ar",
      "ound</w>"
    ],
    [
      "k",
      "ee"
    ],
    [
      "scar",
      "es</w>"
    ],
    [
      "ra",
      "in.</w>"
    ],
    [
      "a",
      ".</w>"
    ],
    [
      "l",
      "ong</w>"
    ],
    [
      "do",
      "ing</w>"
    ],
    [
      "on",
      "ly</w>"
    ],
    [
      "d",
      "r"
    ],
    [
      "li",
      "gh"
    ],
    [
      "i'",
      "d</w>"
    ],
    [
      "d",
      "er</w>"
    ],
    [
      "go",
      "t</w>"
    ],
    [
      "ta",
      "il</w>"
    ],
    [
      "na",
      "me</w>"
    ],
    [
      "ear",
      "li"
    ],
    [
      "n",
      ".</w>"
    ],
    [
      "at",
      "ur"
    ],
    [
      "rea",
      "lly</w>"
    ],
    [
      "p",
      "s</w>"
    ],
    [
      "t",
      "oo"
    ],
    [
      "interest",
      "ing.</w>"
    ],
    [
      "flo",
      "ating</w>"
    ],
    [
      "sor",
      "r"
    ],
    [
      "wa",
      "ll</w>"
    ],
    [
      "wa",
      "ll.</w>"
    ],
    [
      "pro",
      "b"
    ],
    [
      "prob",
      "ab"
    ],
    [
      "probab",
      "ly</w>"
    ],
    [
      "s",
      "ur"
    ],
    [
      "b",
      "e.</w>"
    ],
    [
      "il",
      "e.</w>"
    ],
    [
      "sl",
      "ow</w>"
    ],
    [
      "c",
      "r"
    ],
    [
      "o",
      "p"
    ],
    [
      "h",
      "el"
    ],
    [
      "cu",
      "ri"
    ],
    [
      "d",
      "ow"
    ],
    [
      "r",
      "</w>"
    ],
    [
      "plan",
      "ts</w>"
    ],
    [
      "heal",
      "th"
    ],
    [
      "und",
      "er</w>"
    ],
    [
      "br",
      "ing</w>"
    ],
    [
      "by",
      "e.</w>"
    ],
    [
      "wor",
      "k.</w>"
    ],
    [
      "d",
      "er.</w>"
    ],
    [
      "ta",
      "pped</w>"
    ],
    [
      "e",
      "v"
    ],
    [
      "ro",
      "ck.</w>"
    ],
    [
      "o",
      "f"
    ],
    [
      "sha",
      "p"
    ],
    [
      "sh",
      "i"
    ],
    [
      "m",
      "y"
    ],
    [
      "wan",
      "ts</w>"
    ],
    [
      "no",
      "thing</w>"
    ],
    [
      "te",
      "ll.</w>"
    ],
    [
      "out",
      "side.</w>"
    ],
    [
      "w",
      "in"
    ],
    [
      "sti",
      "ll.</w>"
    ],
    [
      "el",
      "y</w>"
    ],
    [
      "any",
      "thing</w>"
    ],
    [
      "bet",
      "ter</w>"
    ],
    [
      "se",
      "con"
    ],
    [
      "secon",
      "d</w>"
    ],
    [
      "s",
      "k"
    ],
    [
      "vibration",
      "s</w>"
    ],
    [
      "s",
      "ed</w>"
    ],
    [
      "reflecti",
      "on</w>"
    ],
    [
      "gent",
      "le</w>"
    ],
    [
      "a",
      "lly</w>"
    ],
    [
      "c",
      "lou"
    ],
    [
      "sc",
      "a"
    ],
    [
      "be",
      "lly</w>"
    ],
    [
      "th",
      "ou"
    ],
    [
      "thou",
      "ght</w>"
    ],
    [
      "s",
      "it"
    ],
    [
      "noti",
      "c"
    ],
    [
      "too",
      ".</w>"
    ],
    [
      "t",
      "ly.</w>"
    ],
    [
      "th",
      "er"
    ],
    [
      "happen",
      "s.</w>"
    ],
    [
      "co",
      "m"
    ],
    [
      "k",
      "now.</w>"
    ],
    [
      "d",
      "ow.</w>"
    ],
    [
      "aga",
      "in.</w>"
    ],
    [
      "sca",
      "les</w>"
    ],
    [
      "e",
      "at.</w>"
    ],
    [
      "wh",
      "ile.</w>"
    ],
    [
      "e",
      "yes.</w>"
    ],
    [
      "wor",
      "k</w>"
    ],
    [
      "ter",
      "ri"
    ],
    [
      "terri",
      "b"
    ],
    [
      "underst",
      "and</w>"
    ],
    [
      "d",
      "or"
    ],
    [
      "dor",
      "s"
    ],
    [
      "dors",
      "al</w>"
    ],
    [
      "happ",
      "y.</w>"
    ],
    [
      "sti",
      "ll</w>"
    ],
    [
      "big",
      "g"
    ],
    [
      "p",
      "ur"
    ],
    [
      "pur",
      "po"
    ],
    [
      "swi",
      "m.</w>"
    ],
    [
      "fe",
      "ed</w>"
    ],
    [
      "fe",
      "ar</w>"
    ],
    [
      "ba",
      "d.</w>"
    ],
    [
      "clou",
      "dy</w>"
    ],
    [
      "th",
      "an"
    ],
    [
      "come",
      "s</w>"
    ],
    [
      "ca",
      "u"
    ],
    [
      "k",
      "ing.</w>"
    ],
    [
      "norm",
      "al.</w>"
    ],
    [
      "f",
      "ound</w>"
    ],
    [
      "b",
      "ri"
    ],
    [
      "las",
      "t</w>"
    ],
    [
      "spo",
      "t.</w>"
    ],
    [
      "we",
      "t</w>"
    ],
    [
      "ba",
      "thr"
    ],
    [
      "bathr",
      "oo"
    ],
    [
      "yester",
      "day</w>"
    ],
    [
      "sma",
      "ll.</w>"
    ],
    [
      "ou",
      "t.</w>"
    ],
    [
      "in",
      "st"
    ],
    [
      "mi",
      "dd"
    ],
    [
      "s",
      "ing"
    ],
    [
      "sing",
      "ing</w>"
    ],
    [
      "af",
      "ter</w>"
    ],
    [
      "f",
      "in</w>"
    ],
    [
      "earli",
      "er.</w>"
    ],
    [
      "wat",
      "ch</w>"
    ],
    [
      "i",
      "c"
    ],
    [
      "da",
      "ph"
    ],
    [
      "daph",
      "ni"
    ],
    [
      "al",
      "ong</w>"
    ],
    [
      "drea",
      "m.</w>"
    ],
    [
      "h",
      "ow"
    ],
    [
      "bri",
      "dg"
    ],
    [
      "d",
      "y.</w>"
    ],
    [
      "noti",
      "ce</w>"
    ],
    [
      "ex",
      "i"
    ],
    [
      "sorr",
      "y</w>"
    ],
    [
      "hum",
      "an</w>"
    ],
    [
      "kee",
      "p</w>"
    ],
    [
      "hum",
      "an"
    ],
    [
      "k",
      "es.</w>"
    ],
    [
      "ou",
      "s</w>"
    ],
    [
      "mi",
      "ght</w>"
    ],
    [
      "me",
      "an</w>"
    ],
    [
      "be",
      "st.</w>"
    ],
    [
      "chang",
      "es</w>"
    ],
    [
      "re",
      "co"
    ],
    [
      "u",
      "e</w>"
    ],
    [
      "hi",
      ".</w>"
    ],
    [
      "plan",
      "t.</w>"
    ],
    [
      "i",
      "ther</w>"
    ],
    [
      "bi",
      "r"
    ],
    [
      "watch",
      "ing</w>"
    ],
    [
      "cor",
      "n"
    ],
    [
      "re",
      "st.</w>"
    ],
    [
      "pe",
      "ll"
    ],
    [
      "pell",
      "e"
    ],
    [
      "clean",
      "ed</w>"
    ],
    [
      "i",
      "mp"
    ],
    [
      "imp",
      "or"
    ],
    [
      "impor",
      "tan"
    ],
    [
      "he",
      "ater</w>"
    ],
    [
      "t",
      "ing</w>"
    ],
    [
      "ll",
      "y.</w>"
    ],
    [
      "hell",
      "o</w>"
    ],
    [
      "c",
      "t</w>"
    ],
    [
      "en",
      "ough.</w>"
    ],
    [
      "lo",
      "g</w>"
    ],
    [
      "ther",
      "mo"
    ],
    [
      "thermo",
      "me"
    ],
    [
      "ca",
      "ve</w>"
    ],
    [
      "vibration",
      "s.</w>"
    ],
    [
      "how",
      "'s</w>"
    ],
    [
      "p",
      "u"
    ],
    [
      "na",
      "med</w>"
    ],
    [
      "sh",
      "ri"
    ],
    [
      "wea",
      "th"
    ],
    [
      "weath",
      "er.</w>"
    ],
    [
      "h",
      "i</w>"
    ],
    [
      "midd",
      "le.</w>"
    ],
    [
      "mov",
      "ing</w>"
    ],
    [
      "y",
      "s.</w>"
    ],
    [
      "ful",
      "</w>"
    ],
    [
      "cir",
      "cle"
    ],
    [
      "every",
      "thing.</w>"
    ],
    [
      "notic",
      "ed</w>"
    ],
    [
      "urr",
      "y</w>"
    ],
    [
      "l",
      "on"
    ],
    [
      "frien",
      "d"
    ],
    [
      "wh",
      "i"
    ],
    [
      "i",
      "de"
    ],
    [
      "r",
      "an"
    ],
    [
      "swimm",
      "ing.</w>"
    ],
    [
      "clo",
      "se</w>"
    ],
    [
      "on",
      "d</w>"
    ],
    [
      "ta",
      "p</w>"
    ],
    [
      "b",
      "rain</w>"
    ],
    [
      "gr",
      "ow</w>"
    ],
    [
      "ation",
      ".</w>"
    ],
    [
      "ch",
      "i"
    ],
    [
      "er",
      "v"
    ],
    [
      "corn",
      "er.</w>"
    ],
    [
      "lo",
      "g.</w>"
    ],
    [
      "har",
      "d</w>"
    ],
    [
      "pre",
      "tt"
    ],
    [
      "prett",
      "y</w>"
    ],
    [
      "it",
      "s</w>"
    ],
    [
      "de",
      "cor"
    ],
    [
      "b",
      "rain.</w>"
    ],
    [
      "pre",
      "s"
    ],
    [
      "bigg",
      "er</w>"
    ],
    [
      "pe",
      "bb"
    ],
    [
      "3",
      "</w>"
    ],
    [
      "ba",
      "d</w>"
    ],
    [
      "purpo",
      "se</w>"
    ],
    [
      "h",
      "un"
    ],
    [
      "hun",
      "gr"
    ],
    [
      "r",
      ".</w>"
    ],
    [
      ".",
      "."
    ],
    [
      "..",
      ".</w>"
    ],
    [
      "star",
      "ed</w>"
    ],
    [
      "sh",
      "oo"
    ],
    [
      "sl",
      "ow"
    ],
    [
      "u",
      "mb"
    ],
    [
      "o",
      "ld</w>"
    ],
    [
      "le",
      "t</w>"
    ],
    [
      "curr",
      "ent</w>"
    ],
    [
      "he",
      "y</w>"
    ],
    [
      "lo",
      "ts</w>"
    ],
    [
      "ou",
      "s.</w>"
    ],
    [
      "h",
      "an"
    ],
    [
      "big",
      ".</w>"
    ],
    [
      "la",
      "u"
    ],
    [
      "lau",
      "gh"
    ],
    [
      "curi",
      "ous</w>"
    ],
    [
      "b",
      "right</w>"
    ],
    [
      "for",
      "get</w>"
    ],
    [
      "mo",
      "st"
    ],
    [
      "in",
      "to</w>"
    ],
    [
      "happen",
      "ed.</w>"
    ],
    [
      "b",
      "it</w>"
    ],
    [
      "i",
      "ma"
    ],
    [
      "ima",
      "g"
    ],
    [
      "imag",
      "in"
    ],
    [
      "rea",
      "dy</w>"
    ],
    [
      "who",
      "'s</w>"
    ],
    [
      "aga",
      "in"
    ],
    [
      "again",
      "st</w>"
    ],
    [
      "at",
      "ed.</w>"
    ],
    [
      "th",
      ".</w>"
    ],
    [
      "al",
      "one</w>"
    ],
    [
      "tr",
      "ue</w>"
    ],
    [
      "o",
      "x"
    ],
    [
      "ox",
      "y"
    ],
    [
      "oxy",
      "g"
    ],
    [
      "mp",
      ".</w>"
    ],
    [
      "big",
      "ge"
    ],
    [
      "bigge",
      "st</w>"
    ],
    [
      "to",
      "p.</w>"
    ],
    [
      "botto",
      "m</w>"
    ],
    [
      "cir",
      "c"
    ],
    [
      "v",
      "es</w>"
    ],
    [
      "daphni",
      "a.</w>"
    ],
    [
      "re",
      "al</w>"
    ],
    [
      "lif",
      "e.</w>"
    ],
    [
      "clean",
      "ing</w>"
    ],
    [
      "th",
      "ough"
    ],
    [
      "bor",
      "ing</w>"
    ],
    [
      "than",
      "k</w>"
    ],
    [
      "e",
      "ds</w>"
    ],
    [
      "shri",
      "mp.</w>"
    ],
    [
      "happen",
      "ed</w>"
    ],
    [
      "fro",
      "m.</w>"
    ],
    [
      "bet",
      "we"
    ],
    [
      "betwe",
      "en</w>"
    ],
    [
      "f",
      "unny</w>"
    ],
    [
      "bir",
      "th"
    ],
    [
      "exi",
      "st</w>"
    ],
    [
      "tan",
      "k"
    ],
    [
      "tank",
      "m"
    ],
    [
      "tankm",
      "ate</w>"
    ],
    [
      "ge",
      "ts</w>"
    ],
    [
      "hi",
      "ding</w>"
    ],
    [
      "vi",
      "sit"
    ],
    [
      "m",
      "p</w>"
    ],
    [
      "chan",
      "ge"
    ],
    [
      "a",
      "pp"
    ],
    [
      "hell",
      "o"
    ],
    [
      "hello",
      ".</w>"
    ],
    [
      "sa",
      "f"
    ],
    [
      "f",
      "er</w>"
    ],
    [
      "hel",
      "p</w>"
    ],
    [
      "su",
      "dd"
    ],
    [
      "th",
      "is.</w>"
    ],
    [
      "an",
      "y.</w>"
    ],
    [
      "c",
      "al"
    ],
    [
      "go",
      "al"
    ],
    [
      "goal",
      "s</w>"
    ],
    [
      "sti",
      "ff.</w>"
    ],
    [
      "frien",
      "ds.</w>"
    ],
    [
      "he",
      "ar"
    ],
    [
      "so",
      ".</w>"
    ],
    [
      "li",
      "ve.</w>"
    ],
    [
      "x",
      "</w>"
    ],
    [
      "li",
      "ck"
    ],
    [
      "cool",
      "ne"
    ],
    [
      "gent",
      "le.</w>"
    ],
    [
      "p",
      "ri"
    ],
    [
      "sleep",
      "ing</w>"
    ],
    [
      "ch",
      "as"
    ],
    [
      "w",
      "on"
    ],
    [
      "won",
      "der</w>"
    ],
    [
      "coolne",
      "ss</w>"
    ],
    [
      "al",
      "so</w>"
    ],
    [
      "spe",
      "ct</w>"
    ],
    [
      "f",
      "o"
    ],
    [
      "cor",
      "al</w>"
    ],
    [
      "t",
      "re"
    ],
    [
      "tre",
      "as"
    ],
    [
      "treas",
      "ure</w>"
    ],
    [
      "p",
      "ie"
    ],
    [
      "con",
      "fu"
    ],
    [
      "ha",
      "d</w>"
    ],
    [
      "gravel",
      ".</w>"
    ],
    [
      "soun",
      "d</w>"
    ],
    [
      "gravel",
      "</w>"
    ],
    [
      "li",
      "ve</w>"
    ],
    [
      "health",
      "y</w>"
    ],
    [
      "col",
      "d.</w>"
    ],
    [
      "see",
      "ms</w>"
    ],
    [
      "u",
      "sed</w>"
    ],
    [
      "l",
      "ater</w>"
    ],
    [
      "be",
      "for"
    ],
    [
      "befor",
      "e.</w>"
    ],
    [
      "memor",
      "y.</w>"
    ],
    [
      "differen",
      "tly</w>"
    ],
    [
      "te",
      "a"
    ],
    [
      "fin",
      "s.</w>"
    ],
    [
      "color",
      "ful</w>"
    ],
    [
      "sha",
      "dow.</w>"
    ],
    [
      "lon",
      "ely</w>"
    ],
    [
      "ho",
      "t</w>"
    ],
    [
      "rememb",
      "er.</w>"
    ],
    [
      "the",
      "m.</w>"
    ],
    [
      "el",
      "y.</w>"
    ],
    [
      "c",
      "e"
    ],
    [
      "c",
      "t.</w>"
    ],
    [
      "cast",
      "le</w>"
    ],
    [
      "gh",
      "t"
    ],
    [
      "quie",
      "t</w>"
    ],
    [
      "no",
      "i"
    ],
    [
      "tt",
      "er.</w>"
    ],
    [
      "m",
      "ind</w>"
    ],
    [
      "whi",
      "ch</w>"
    ],
    [
      "k",
      "e.</w>"
    ],
    [
      "cool",
      "</w>"
    ],
    [
      "interest",
      "ing</w>"
    ],
    [
      "imagin",
      "ed</w>"
    ],
    [
      "th",
      "o"
    ],
    [
      "tho",
      "se</w>"
    ],
    [
      "importan",
      "t</w>"
    ],
    [
      "r",
      "u"
    ],
    [
      "fas",
      "ter</w>"
    ],
    [
      "quie",
      "t.</w>"
    ],
    [
      "g",
      "e</w>"
    ],
    [
      "sk",
      "u"
    ],
    [
      "sku",
      "ll</w>"
    ],
    [
      "bo",
      "th</w>"
    ],
    [
      "t",
      "ou"
    ],
    [
      "tou",
      "ch</w>"
    ],
    [
      "k",
      "s</w>"
    ],
    [
      "shi",
      "p"
    ],
    [
      "ship",
      "w"
    ],
    [
      "shipw",
      "re"
    ],
    [
      "oh",
      ".</w>"
    ],
    [
      "some",
      "thing.</w>"
    ],
    [
      "ou",
      "r</w>"
    ],
    [
      "gr",
      "ow"
    ],
    [
      "wa",
      "it"
    ],
    [
      "col",
      "or</w>"
    ],
    [
      "shap",
      "es.</w>"
    ],
    [
      "my",
      "ster"
    ],
    [
      "br",
      "ow"
    ],
    [
      "tw",
      "o</w>"
    ],
    [
      "ve",
      "t</w>"
    ],
    [
      "mov",
      "ing.</w>"
    ],
    [
      "in",
      "ve"
    ],
    [
      "inve",
      "sti"
    ],
    [
      "investi",
      "g"
    ],
    [
      "m",
      "any</w>"
    ],
    [
      "it",
      "s.</w>"
    ]
  ]
}