{
  "vocab": {
    "'": 0,
    "'re</w>": 1,
    "'s</w>": 2,
    "'t</w>": 3,
    ".": 4,
    ".</w>": 5,
    "0": 6,
    "1": 7,
    "2": 8,
    "3": 9,
    "3</w>": 10,
    "4": 11,
    "5": 12,
    "6": 13,
    "7": 14,
    "8": 15,
    "9": 16,
    "</w>": 17,
    "<unk>": 18,
    "a": 19,
    "a</w>": 20,
    "ab": 21,
    "about</w>": 22,
    "ac": 23,
    "af": 24,
    "afra": 25,
    "afraid</w>": 26,
    "after</w>": 27,
    "aga": 28,
    "again": 29,
    "again</w>": 30,
    "against</w>": 31,
    "al": 32,
    "al</w>": 33,
    "alga": 34,
    "algae</w>": 35,
    "all</w>": 36,
    "ally</w>": 37,
    "alone</w>": 38,
    "along</w>": 39,
    "als</w>": 40,
    "also</w>": 41,
    "alwa": 42,
    "always</w>": 43,
    "am</w>": 44,
    "an": 45,
    "an</w>": 46,
    "and</w>": 47,
    "ang": 48,
    "aning</w>": 49,
    "ans</w>": 50,
    "ant</w>": 51,
    "ants</w>": 52,
    "any</w>": 53,
    "anything</w>": 54,
    "app": 55,
    "ar": 56,
    "ar</w>": 57,
    "arch</w>": 58,
    "are</w>": 59,
    "around</w>": 60,
    "art</w>": 61,
    "as": 62,
    "as</w>": 63,
    "ast": 64,
    "at": 65,
    "at's</w>": 66,
    "at</w>": 67,
    "ate</w>": 68,
    "ated</w>": 69,
    "ater</w>": 70,
    "ati": 71,
    "ating</w>": 72,
    "ation</w>": 73,
    "ature</w>": 74,
    "away</w>": 75,
    "ay</w>": 76,
    "b": 77,
    "ba": 78,
    "back</w>": 79,
    "bad</w>": 80,
    "bathr": 81,
    "bathroom</w>": 82,
    "bb": 83,
    "bble</w>": 84,
    "be": 85,
    "be</w>": 86,
    "been</w>": 87,
    "befor": 88,
    "before</w>": 89,
    "beh": 90,
    "behind</w>": 91,
    "being</w>": 92,
    "bel": 93,
    "belly</w>": 94,
    "best</w>": 95,
    "bet": 96,
    "better</w>": 97,
    "betwe": 98,
    "between</w>": 99,
    "bi": 100,
    "big": 101,
    "big</w>": 102,
    "bigg": 103,
    "bigge": 104,
    "bigger</w>": 105,
    "biggest</w>": 106,
    "bir": 107,
    "birth": 108,
    "bit</w>": 109,
    "bl": 110,
    "ble</w>": 111,
    "bo": 112,
    "body</w>": 113,
    "bor": 114,
    "bored</w>": 115,
    "boring</w>": 116,
    "born</w>": 117,
    "bot": 118,
    "botto": 119,
    "bottom</w>": 120,
    "br": 121,
    "brain</w>": 122,
    "brea": 123,
    "breathe</w>": 124,
    "breathing</w>": 125,
    "bri": 126,
    "bridge</w>": 127,
    "bright</w>": 128,
    "bring</w>": 129,
    "bu": 130,
    "bubb": 131,
    "bubble</w>": 132,
    "bubbles</w>": 133,
    "but</w>": 134,
    "by": 135,
    "by</w>": 136,
    "bye</w>": 137,
    "c": 138,
    "c</w>": 139,
    "ca": 140,
    "cal": 141,
    "calm</w>": 142,
    "can": 143,
    "can't</w>": 144,
    "can</w>": 145,
    "cas": 146,
    "castle</w>": 147,
    "cat</w>": 148,
    "cau": 149,
    "cave</w>": 150,
    "ce": 151,
    "ce</w>": 152,
    "ces</w>": 153,
    "ch": 154,
    "ch</w>": 155,
    "chang": 156,
    "change</w>": 157,
    "changes</w>": 158,
    "chas": 159,
    "che": 160,
    "check</w>": 161,
    "chest</w>": 162,
    "chil": 163,
    "ci": 164,
    "cir": 165,
    "circ": 166,
    "circle</w>": 167,
    "circles</w>": 168,
    "cit": 169,
    "ck": 170,
    "ck</w>": 171,
    "cks</w>": 172,
    "cle": 173,
    "clean": 174,
    "clean</w>": 175,
    "cleaned</w>": 176,
    "cleaning</w>": 177,
    "clo": 178,
    "clock</w>": 179,
    "close</w>": 180,
    "clou": 181,
    "cloudy</w>": 182,
    "co": 183,
    "col": 184,
    "cold</w>": 185,
    "colder</w>": 186,
    "color": 187,
    "color</w>": 188,
    "colorful</w>": 189,
    "colors</w>": 190,
    "com": 191,
    "comes</w>": 192,
    "coming</w>": 193,
    "comp": 194,
    "company</w>": 195,
    "con": 196,
    "confu": 197,
    "coo": 198,
    "cool": 199,
    "cool</w>": 200,
    "coolne": 201,
    "coolness</w>": 202,
    "cor": 203,
    "coral</w>": 204,
    "corner</w>": 205,
    "could</w>": 206,
    "cr": 207,
    "ct</w>": 208,
    "cti": 209,
    "ction</w>": 210,
    "cu": 211,
    "cur": 212,
    "curi": 213,
    "curious</w>": 214,
    "curr": 215,
    "current</w>": 216,
    "d": 217,
    "d</w>": 218,
    "da": 219,
    "daph": 220,
    "daphni": 221,
    "daphnia</w>": 222,
    "dar": 223,
    "dark</w>": 224,
    "day</w>": 225,
    "dd": 226,
    "de": 227,
    "de</w>": 228,
    "decor": 229,
    "decoration</w>": 230,
    "der</w>": 231,
    "dge</w>": 232,
    "di": 233,
    "did</w>": 234,
    "didn't</w>": 235,
    "diff": 236,
    "differ": 237,
    "different</w>": 238,
    "differently</w>": 239,
    "ding</w>": 240,
    "dn't</w>": 241,
    "do": 242,
    "do</w>": 243,
    "doe": 244,
    "does</w>": 245,
    "doesn't</w>": 246,
    "doing</w>": 247,
    "don't</w>": 248,
    "dor": 249,
    "dorsa": 250,
    "dorsal</w>": 251,
    "dow</w>": 252,
    "down</w>": 253,
    "drea": 254,
    "dream</w>": 255,
    "dry</w>": 256,
    "ds</w>": 257,
    "dy</w>": 258,
    "e": 259,
    "e</w>": 260,
    "ea": 261,
    "ear": 262,
    "earli": 263,
    "earlier</w>": 264,
    "eas": 265,
    "easy</w>": 266,
    "eat</w>": 267,
    "ed</w>": 268,
    "eds</w>": 269,
    "el": 270,
    "el</w>": 271,
    "ell</w>": 272,
    "ely</w>": 273,
    "en": 274,
    "en</w>": 275,
    "enough</w>": 276,
    "ent</w>": 277,
    "ently</w>": 278,
    "er": 279,
    "er</w>": 280,
    "ere": 281,
    "ere's</w>": 282,
    "ere</w>": 283,
    "erv": 284,
    "es</w>": 285,
    "est</w>": 286,
    "et</w>": 287,
    "ev": 288,
    "ever": 289,
    "ever</w>": 290,
    "every</w>": 291,
    "everything</w>": 292,
    "ex": 293,
    "excit": 294,
    "excited</w>": 295,
    "exi": 296,
    "exist</w>": 297,
    "eyes</w>": 298,
    "f": 299,
    "f</w>": 300,
    "fa": 301,
    "face</w>": 302,
    "fas": 303,
    "fast</w>": 304,
    "fav": 305,
    "favorit": 306,
    "favorite</w>": 307,
    "fe": 308,
    "fe</w>": 309,
    "fear</w>": 310,
    "feature</w>": 311,
    "feed</w>": 312,
    "feel": 313,
    "feel</w>": 314,
    "feels</w>": 315,
    "fel": 316,
    "felt</w>": 317,
    "fer</w>": 318,
    "ff": 319,
    "ff</w>": 320,
    "fi": 321,
    "fil": 322,
    "filter</w>": 323,
    "fin": 324,
    "fin</w>": 325,
    "fine</w>": 326,
    "fins</w>": 327,
    "fish</w>": 328,
    "fla": 329,
    "flakes</w>": 330,
    "flo": 331,
    "float</w>": 332,
    "floating</w>": 333,
    "fo": 334,
    "food</w>": 335,
    "for": 336,
    "for</w>": 337,
    "forget</w>": 338,
    "found</w>": 339,
    "fre": 340,
    "fri": 341,
    "frien": 342,
    "friend": 343,
    "friend</w>": 344,
    "friends</w>": 345,
    "fro": 346,
    "from</w>": 347,
    "fu": 348,
    "ful</w>": 349,
    "funny</w>": 350,
    "g": 351,
    "g</w>": 352,
    "ga": 353,
    "ge": 354,
    "ge</w>": 355,
    "gen": 356,
    "gentle</w>": 357,
    "get</w>": 358,
    "gets</w>": 359,
    "gett": 360,
    "getting</w>": 361,
    "gh": 362,
    "gh</w>": 363,
    "ght</w>": 364,
    "ghts</w>": 365,
    "gi": 366,
    "gil": 367,
    "gills</w>": 368,
    "ging</w>": 369,
    "glas": 370,
    "glass</w>": 371,
    "go": 372,
    "go</w>": 373,
    "goals</w>": 374,
    "goes</w>": 375,
    "going</w>": 376,
    "goo": 377,
    "good": 378,
    "good</w>": 379,
    "goodnight</w>": 380,
    "got</w>": 381,
    "gra": 382,
    "grav": 383,
    "gravel</w>": 384,
    "gre": 385,
    "great</w>": 386,
    "green</w>": 387,
    "grow": 388,
    "grow</w>": 389,
    "gs</w>": 390,
    "gu": 391,
    "gue": 392,
    "guppy</w>": 393,
    "h": 394,
    "h</w>": 395,
    "ha": 396,
    "had</w>": 397,
    "han": 398,
    "happ": 399,
    "happen": 400,
    "happen</w>": 401,
    "happened</w>": 402,
    "happening</w>": 403,
    "happens</w>": 404,
    "happy</w>": 405,
    "har": 406,
    "hard</w>": 407,
    "has</w>": 408,
    "have</w>": 409,
    "he": 410,
    "heal": 411,
    "health": 412,
    "healthy</w>": 413,
    "hear": 414,
    "hear</w>": 415,
    "heater</w>": 416,
    "hel": 417,
    "hell": 418,
    "hello</w>": 419,
    "help</w>": 420,
    "here</w>": 421,
    "hey</w>": 422,
    "hi": 423,
    "hi</w>": 424,
    "hide</w>": 425,
    "hiding</w>": 426,
    "ho": 427,
    "hope</w>": 428,
    "hot</w>": 429,
    "how": 430,
    "how's</w>": 431,
    "how</w>": 432,
    "hu": 433,
    "hum": 434,
    "human</w>": 435,
    "humans</w>": 436,
    "hun": 437,
    "hung": 438,
    "hungry</w>": 439,
    "i": 440,
    "i'": 441,
    "i'd</w>": 442,
    "i'll</w>": 443,
    "i'm</w>": 444,
    "i've</w>": 445,
    "i</w>": 446,
    "id</w>": 447,
    "ide": 448,
    "idea</w>": 449,
    "ie": 450,
    "if</w>": 451,
    "il": 452,
    "il</w>": 453,
    "ima": 454,
    "imag": 455,
    "imagin": 456,
    "imp": 457,
    "impor": 458,
    "importan": 459,
    "important</w>": 460,
    "in": 461,
    "in</w>": 462,
    "ind</w>": 463,
    "ine</w>": 464,
    "ing</w>": 465,
    "inst": 466,
    "int": 467,
    "intere": 468,
    "interest": 469,
    "interesting</w>": 470,
    "into</w>": 471,
    "iny</w>": 472,
    "ir</w>": 473,
    "is</w>": 474,
    "it": 475,
    "it's</w>": 476,
    "it</w>": 477,
    "ither</w>": 478,
    "iting</w>": 479,
    "its</w>": 480,
    "ity</w>": 481,
    "j": 482,
    "jo": 483,
    "joke</w>": 484,
    "jokes</w>": 485,
    "just</w>": 486,
    "k": 487,
    "k</w>": 488,
    "ke": 489,
    "ke</w>": 490,
    "kee": 491,
    "keep</w>": 492,
    "kes</w>": 493,
    "king</w>": 494,
    "know</w>": 495,
    "ks</w>": 496,
    "l": 497,
    "l</w>": 498,
    "la": 499,
    "las": 500,
    "last</w>": 501,
    "later</w>": 502,
    "lau": 503,
    "laugh</w>": 504,
    "ld</w>": 505,
    "le": 506,
    "le</w>": 507,
    "leas": 508,
    "led</w>": 509,
    "les</w>": 510,
    "less</w>": 511,
    "let</w>": 512,
    "li": 513,
    "lick": 514,
    "life</w>": 515,
    "light</w>": 516,
    "like</w>": 517,
    "lit": 518,
    "little</w>": 519,
    "live</w>": 520,
    "ll</w>": 521,
    "lo": 522,
    "log</w>": 523,
    "lon": 524,
    "lonely</w>": 525,
    "long</w>": 526,
    "loo": 527,
    "look</w>": 528,
    "looking</w>": 529,
    "looks</w>": 530,
    "lot</w>": 531,
    "lots</w>": 532,
    "lou": 533,
    "loud</w>": 534,
    "love</w>": 535,
    "low": 536,
    "low</w>": 537,
    "lowing</w>": 538,
    "ls</w>": 539,
    "ly</w>": 540,
    "m": 541,
    "m</w>": 542,
    "ma": 543,
    "make</w>": 544,
    "makes</w>": 545,
    "many</w>": 546,
    "may": 547,
    "maybe</w>": 548,
    "mb": 549,
    "mber</w>": 550,
    "me": 551,
    "me</w>": 552,
    "mean</w>": 553,
    "meaning</w>": 554,
    "means</w>": 555,
    "med</w>": 556,
    "memor": 557,
    "memory</w>": 558,
    "ment</w>": 559,
    "mes</w>": 560,
    "mi": 561,
    "midd": 562,
    "middle</w>": 563,
    "might</w>": 564,
    "mind</w>": 565,
    "mm": 566,
    "mo": 567,
    "moment</w>": 568,
    "mor": 569,
    "more</w>": 570,
    "most": 571,
    "most</w>": 572,
    "mostly</w>": 573,
    "mou": 574,
    "mouth</w>": 575,
    "mov": 576,
    "move</w>": 577,
    "moved</w>": 578,
    "moving</w>": 579,
    "mp": 580,
    "mp</w>": 581,
    "ms</w>": 582,
    "mu": 583,
    "much</w>": 584,
    "musi": 585,
    "music</w>": 586,
    "my": 587,
    "my</w>": 588,
    "n": 589,
    "n't</w>": 590,
    "n</w>": 591,
    "na": 592,
    "name</w>": 593,
    "named</w>": 594,
    "ne": 595,
    "near</w>": 596,
    "ned</w>": 597,
    "need</w>": 598,
    "ner</w>": 599,
    "never</w>": 600,
    "new</w>": 601,
    "nex": 602,
    "next</w>": 603,
    "ni": 604,
    "nice</w>": 605,
    "night</w>": 606,
    "ning</w>": 607,
    "no": 608,
    "no</w>": 609,
    "noi": 610,
    "nor": 611,
    "norma": 612,
    "normal</w>": 613,
    "not</w>": 614,
    "nothing</w>": 615,
    "noti": 616,
    "notic": 617,
    "notice</w>": 618,
    "noticed</w>": 619,
    "now</w>": 620,
    "nu": 621,
    "ny</w>": 622,
    "o": 623,
    "o</w>": 624,
    "of</w>": 625,
    "off</w>": 626,
    "oh</w>": 627,
    "ok</w>": 628,
    "old</w>": 629,
    "on": 630,
    "on't</w>": 631,
    "on</w>": 632,
    "once</w>": 633,
    "ond</w>": 634,
    "one</w>": 635,
    "ones</w>": 636,
    "ong</w>": 637,
    "only</w>": 638,
    "ons</w>": 639,
    "oo": 640,
    "ood</w>": 641,
    "oom</w>": 642,
    "op": 643,
    "or": 644,
    "or</w>": 645,
    "orit": 646,
    "ort</w>": 647,
    "ot</w>": 648,
    "ou": 649,
    "ough</w>": 650,
    "ould</w>": 651,
    "oun": 652,
    "ound</w>": 653,
    "ous</w>": 654,
    "out": 655,
    "out</w>": 656,
    "outside</w>": 657,
    "ow</w>": 658,
    "ox": 659,
    "oxy": 660,
    "oxyg": 661,
    "oxygen</w>": 662,
    "p": 663,
    "p</w>": 664,
    "part</w>": 665,
    "pe": 666,
    "pe</w>": 667,
    "pea": 668,
    "pebble</w>": 669,
    "pel": 670,
    "pelle": 671,
    "pellets</w>": 672,
    "per": 673,
    "ph": 674,
    "pi": 675,
    "pie": 676,
    "piece</w>": 677,
    "pl": 678,
    "pla": 679,
    "plan</w>": 680,
    "plant</w>": 681,
    "plants</w>": 682,
    "pleas": 683,
    "please</w>": 684,
    "po": 685,
    "poo": 686,
    "poop</w>": 687,
    "pp": 688,
    "pped</w>": 689,
    "ppy</w>": 690,
    "pre": 691,
    "pres": 692,
    "prett": 693,
    "pretty</w>": 694,
    "pri": 695,
    "pro": 696,
    "prob": 697,
    "probab": 698,
    "probably</w>": 699,
    "ps</w>": 700,
    "pu": 701,
    "pur": 702,
    "purpo": 703,
    "purpose</w>": 704,
    "q": 705,
    "qu": 706,
    "qui": 707,
    "quie": 708,
    "quiet</w>": 709,
    "r": 710,
    "r</w>": 711,
    "ra": 712,
    "rain</w>": 713,
    "re": 714,
    "re</w>": 715,
    "rea": 716,
    "ready</w>": 717,
    "real</w>": 718,
    "really</w>": 719,
    "reco": 720,
    "red</w>": 721,
    "ref": 722,
    "refle": 723,
    "reflection</w>": 724,
    "reme": 725,
    "remember</w>": 726,
    "rest</w>": 727,
    "ri": 728,
    "ried</w>": 729,
    "right</w>": 730,
    "ro": 731,
    "rock</w>": 732,
    "row": 733,
    "row</w>": 734,
    "ru": 735,
    "ry</w>": 736,
    "s": 737,
    "s</w>": 738,
    "sa": 739,
    "safe</w>": 740,
    "same</w>": 741,
    "say</w>": 742,
    "sc": 743,
    "scal": 744,
    "scales</w>": 745,
    "scar": 746,
    "scare</w>": 747,
    "scared</w>": 748,
    "scares</w>": 749,
    "se": 750,
    "se</w>": 751,
    "seas": 752,
    "seasons</w>": 753,
    "secon": 754,
    "second</w>": 755,
    "sed</w>": 756,
    "see": 757,
    "see</w>": 758,
    "seem</w>": 759,
    "seems</w>": 760,
    "sel": 761,
    "self</w>": 762,
    "sh": 763,
    "sh</w>": 764,
    "sha": 765,
    "shadow</w>": 766,
    "shap": 767,
    "shapes</w>": 768,
    "shi": 769,
    "shoo": 770,
    "shook</w>": 771,
    "should</w>": 772,
    "shri": 773,
    "shrimp</w>": 774,
    "si": 775,
    "sick</w>": 776,
    "side</w>": 777,
    "simp": 778,
    "simple</w>": 779,
    "sin": 780,
    "sing</w>": 781,
    "singing</w>": 782,
    "sk": 783,
    "sle": 784,
    "slee": 785,
    "sleep": 786,
    "sleep</w>": 787,
    "sleeping</w>": 788,
    "sleepy</w>": 789,
    "slow": 790,
    "slow</w>": 791,
    "sm": 792,
    "small</w>": 793,
    "smart</w>": 794,
    "sn't</w>": 795,
    "sna": 796,
    "snail</w>": 797,
    "so": 798,
    "so</w>": 799,
    "sof": 800,
    "soft</w>": 801,
    "some": 802,
    "some</w>": 803,
    "someone</w>": 804,
    "something</w>": 805,
    "sometimes</w>": 806,
    "sor": 807,
    "sorry</w>": 808,
    "soun": 809,
    "sound</w>": 810,
    "sounds</w>": 811,
    "sp": 812,
    "spe": 813,
    "spect</w>": 814,
    "spot</w>": 815,
    "ss</w>": 816,
    "st": 817,
    "st</w>": 818,
    "star": 819,
    "stared</w>": 820,
    "stay</w>": 821,
    "ster": 822,
    "sti": 823,
    "stiff</w>": 824,
    "still</w>": 825,
    "sto": 826,
    "stop</w>": 827,
    "sts</w>": 828,
    "su": 829,
    "sudd": 830,
    "sur": 831,
    "sure</w>": 832,
    "swa": 833,
    "swam</w>": 834,
    "swi": 835,
    "swim</w>": 836,
    "swimm": 837,
    "swimming</w>": 838,
    "t": 839,
    "t</w>": 840,
    "ta": 841,
    "tail</w>": 842,
    "take</w>": 843,
    "tal": 844,
    "talk</w>": 845,
    "tan": 846,
    "tank": 847,
    "tank</w>": 848,
    "tankm": 849,
    "tankmate</w>": 850,
    "tap</w>": 851,
    "tapped</w>": 852,
    "tast": 853,
    "taste</w>": 854,
    "tastes</w>": 855,
    "te": 856,
    "tea": 857,
    "tell</w>": 858,
    "temp": 859,
    "temper": 860,
    "temperature</w>": 861,
    "ten": 862,
    "ter": 863,
    "ter</w>": 864,
    "terri": 865,
    "terrible</w>": 866,
    "th": 867,
    "th</w>": 868,
    "than": 869,
    "than</w>": 870,
    "thank</w>": 871,
    "that's</w>": 872,
    "that</w>": 873,
    "the": 874,
    "the</w>": 875,
    "them</w>": 876,
    "then</w>": 877,
    "ther": 878,
    "ther</w>": 879,
    "there's</w>": 880,
    "there</w>": 881,
    "thermo": 882,
    "thermome": 883,
    "thermometer</w>": 884,
    "they": 885,
    "they're</w>": 886,
    "they</w>": 887,
    "thin": 888,
    "thing</w>": 889,
    "things</w>": 890,
    "think</w>": 891,
    "thinking</w>": 892,
    "this</w>": 893,
    "thou": 894,
    "thought</w>": 895,
    "thoughts</w>": 896,
    "thr": 897,
    "through</w>": 898,
    "ti": 899,
    "time</w>": 900,
    "times</w>": 901,
    "ting</w>": 902,
    "tiny</w>": 903,
    "tired</w>": 904,
    "tle</w>": 905,
    "tly</w>": 906,
    "to": 907,
    "to</w>": 908,
    "today</w>": 909,
    "tomor": 910,
    "tomorrow</w>": 911,
    "too</w>": 912,
    "top</w>": 913,
    "tre": 914,
    "treas": 915,
    "treasure</w>": 916,
    "tried</w>": 917,
    "tru": 918,
    "true</w>": 919,
    "try</w>": 920,
    "ts</w>": 921,
    "tt": 922,
    "tu": 923,
    "tube</w>": 924,
    "tv": 925,
    "tv</w>": 926,
    "tw": 927,
    "ty</w>": 928,
    "u": 929,
    "un": 930,
    "und": 931,
    "under": 932,
    "under</w>": 933,
    "underst": 934,
    "understand</w>": 935,
    "unny</w>": 936,
    "up</w>": 937,
    "ur": 938,
    "ure</w>": 939,
    "urry</w>": 940,
    "used</w>": 941,
    "ust</w>": 942,
    "v": 943,
    "ve": 944,
    "ve</w>": 945,
    "ver": 946,
    "ver</w>": 947,
    "vering</w>": 948,
    "very</w>": 949,
    "ves</w>": 950,
    "vi": 951,
    "vibr": 952,
    "vibrati": 953,
    "vibrations</w>": 954,
    "vis": 955,
    "w": 956,
    "w</w>": 957,
    "wa": 958,
    "wait</w>": 959,
    "wall</w>": 960,
    "want</w>": 961,
    "wants</w>": 962,
    "war": 963,
    "warm": 964,
    "warm</w>": 965,
    "warmer</w>": 966,
    "was</w>": 967,
    "wat": 968,
    "watch": 969,
    "watch</w>": 970,
    "watching</w>": 971,
    "water</w>": 972,
    "way</w>": 973,
    "we": 974,
    "we</w>": 975,
    "wea": 976,
    "weather</w>": 977,
    "well</w>": 978,
    "were</w>": 979,
    "wet</w>": 980,
    "wh": 981,
    "what's</w>": 982,
    "what</w>": 983,
    "when</w>": 984,
    "where</w>": 985,
    "whi": 986,
    "while</w>": 987,
    "who": 988,
    "who's</w>": 989,
    "who</w>": 990,
    "whole</w>": 991,
    "why</w>": 992,
    "wi": 993,
    "will</w>": 994,
    "win": 995,
    "with</w>": 996,
    "wn</w>": 997,
    "won": 998,
    "wonder</w>": 999,
    "wor": 1000,
    "work</w>": 1001,
    "world</w>": 1002,
    "worms</w>": 1003,
    "would</w>": 1004,
    "ws</w>": 1005,
    "x": 1006,
    "x</w>": 1007,
    "y": 1008,
    "y</w>": 1009,
    "ye": 1010,
    "yes</w>": 1011,
    "yester": 1012,
    "yesterday</w>": 1013,
    "you": 1014,
    "you're</w>": 1015,
    "you</w>": 1016,
    "your": 1017,
    "your</w>": 1018,
    "yourself</w>": 1019,
    "ys</w>": 1020,
    "ything</w>": 1021,
    "ywhere</w>": 1022,
    "z": 1023,
    "ze</w>": 1024
  },
  "merges": [
    [
      "e",
      "</w>"
    ],
    [
      ".",
      "</w>"
    ],
    [
      "t",
      "</w>"
    ],
    [
      "s",
      "</w>"
    ],
    [
      "t",
      "h"
    ],
    [
      "o",
      "u"
    ],
    [
      "i",
      "n"
    ],
    [
      "d",
      "</w>"
    ],
    [
      "y",
      "</w>"
    ],
    [
      "e",
      "r"
    ],
    [
      "th",
      "e</w>"
    ],
    [
      "i",
      "</w>"
    ],
    [
      "y",
      "ou"
    ],
    [
      "a",
      "n"
    ],
    [
      "g",
      "</w>"
    ],
    [
      "o",
      "</w>"
    ],
    [
      "you",
      "</w>"
    ],
    [
      "in",
      "g</w>"
    ],
    [
      "er",
      "</w>"
    ],
    [
      "a",
      "t"
    ],
    [
      "a",
      "r"
    ],
    [
      "i",
      "s</w>"
    ],
    [
      "l",
      "</w>"
    ],
    [
      "o",
      "r"
    ],
    [
      "e",
      "n"
    ],
    [
      "a",
      "t</w>"
    ],
    [
      "o",
      "n"
    ],
    [
      "w",
      "h"
    ],
    [
      "a",
      "</w>"
    ],
    [
      "k",
      "</w>"
    ],
    [
      "m",
      "</w>"
    ],
    [
      "e",
      "s</w>"
    ],
    [
      "l",
      "i"
    ],
    [
      "o",
      "o"
    ],
    [
      "'",
      "s</w>"
    ],
    [
      "h",
      "</w>"
    ],
    [
      "r",
      "e"
    ],
    [
      "w",
      "</w>"
    ],
    [
      "m",
      "e</w>"
    ],
    [
      "a",
      "l"
    ],
    [
      "i",
      "t</w>"
    ],
    [
      "e",
      "d</w>"
    ],
    [
      "d",
      "o</w>"
    ],
    [
      "f",
      "i"
    ],
    [
      "a",
      "s"
    ],
    [
      "o",
      "w</w>"
    ],
    [
      "w",
      "at"
    ],
    [
      "i",
      "t"
    ],
    [
      "m",
      "y</w>"
    ],
    [
      "ar",
      "e</w>"
    ],
    [
      "wat",
      "er</w>"
    ],
    [
      "i",
      "'"
    ],
    [
      "s",
      "h</w>"
    ],
    [
      "s",
      "t</w>"
    ],
    [
      "t",
      "i"
    ],
    [
      "v",
      "e</w>"
    ],
    [
      "k",
      "e</w>"
    ],
    [
      "g",
      "h"
    ],
    [
      "m",
      "e"
    ],
    [
      "t",
      "o</w>"
    ],
    [
      "h",
      "a"
    ],
    [
      "fi",
      "sh</w>"
    ],
    [
      "en",
      "</w>"
    ],
    [
      "oo",
      "d</w>"
    ],
    [
      "'",
      "t</w>"
    ],
    [
      "b",
      "u"
    ],
    [
      "an",
      "</w>"
    ],
    [
      "in",
      "</w>"
    ],
    [
      "e",
      "l"
    ],
    [
      "gh",
      "t</w>"
    ],
    [
      "l",
      "e</w>"
    ],
    [
      "r",
      "i"
    ],
    [
      "w",
      "i"
    ],
    [
      "a",
      "y</w>"
    ],
    [
      "an",
      "d</w>"
    ],
    [
      "or",
      "</w>"
    ],
    [
      "n",
      "e"
    ],
    [
      "wh",
      "at</w>"
    ],
    [
      "li",
      "ke</w>"
    ],
    [
      "th",
      "ing</w>"
    ],
    [
      "f",
      "</w>"
    ],
    [
      "l",
      "e"
    ],
    [
      "b",
      "e"
    ],
    [
      "p",
      "p"
    ],
    [
      "er",
      "e</w>"
    ],
    [
      "at",
      "'s</w>"
    ],
    [
      "n",
      "ow</w>"
    ],
    [
      "ou",
      "t</w>"
    ],
    [
      "s",
      "o"
    ],
    [
      "it",
      "'s</w>"
    ],
    [
      "f",
      "ood</w>"
    ],
    [
      "t",
      "o"
    ],
    [
      "s",
      "i"
    ],
    [
      "s",
      "e"
    ],
    [
      "i'",
      "m</w>"
    ],
    [
      "on",
      "'t</w>"
    ],
    [
      "c",
      "an</w>"
    ],
    [
      "d",
      "on't</w>"
    ],
    [
      "th",
      "in"
    ],
    [
      "w",
      "a"
    ],
    [
      "l",
      "o"
    ],
    [
      "b",
      "e</w>"
    ],
    [
      "th",
      "at</w>"
    ],
    [
      "p",
      "</w>"
    ],
    [
      "m",
      "a"
    ],
    [
      "al",
      "l</w>"
    ],
    [
      "a",
      "b"
    ],
    [
      "f",
      "e"
    ],
    [
      "s",
      "t"
    ],
    [
      "l",
      "l</w>"
    ],
    [
      "n",
      "i"
    ],
    [
      "d",
      "ay</w>"
    ],
    [
      "c",
      "e</w>"
    ],
    [
      "f",
      "or</w>"
    ],
    [
      "l",
      "y</w>"
    ],
    [
      "th",
      "at's</w>"
    ],
    [
      "you",
      "r"
    ],
    [
      "c",
      "o"
    ],
    [
      "re",
      "a"
    ],
    [
      "bu",
      "t</w>"
    ],
    [
      "ab",
      "out</w>"
    ],
    [
      "t",
      "er</w>"
    ],
    [
      "u",
      "st</w>"
    ],
    [
      "l",
      "d</w>"
    ],
    [
      "l",
      "as"
    ],
    [
      "so",
      "me"
    ],
    [
      "s",
      "wi"
    ],
    [
      "ha",
      "ve</w>"
    ],
    [
      "l",
      "oo"
    ],
    [
      "j",
      "ust</w>"
    ],
    [
      "r",
      "e</w>"
    ],
    [
      "d",
      "e</w>"
    ],
    [
      "wh",
      "en</w>"
    ],
    [
      "e",
      "t</w>"
    ],
    [
      "g",
      "las"
    ],
    [
      "glas",
      "s</w>"
    ],
    [
      "your",
      "</w>"
    ],
    [
      "t",
      "an"
    ],
    [
      "r",
      "o"
    ],
    [
      "d",
      "i"
    ],
    [
      "o",
      "f</w>"
    ],
    [
      "r",
      "a"
    ],
    [
      "pp",
      "y</w>"
    ],
    [
      "n",
      "o"
    ],
    [
      "c",
      "h"
    ],
    [
      "ar",
      "</w>"
    ],
    [
      "se",
      "e</w>"
    ],
    [
      "th",
      "e"
    ],
    [
      "b",
      "i"
    ],
    [
      "k",
      "now</w>"
    ],
    [
      "v",
      "er"
    ],
    [
      "b",
      "b"
    ],
    [
      "ti",
      "me</w>"
    ],
    [
      "c",
      "k</w>"
    ],
    [
      "m",
      "o"
    ],
    [
      "g",
      "u"
    ],
    [
      "tan",
      "k</w>"
    ],
    [
      "p",
      "l"
    ],
    [
      "t",
      "le</w>"
    ],
    [
      "on",
      "</w>"
    ],
    [
      "s",
      "m"
    ],
    [
      "l",
      "es</w>"
    ],
    [
      "si",
      "de</w>"
    ],
    [
      "h",
      "ow</w>"
    ],
    [
      "thin",
      "k</w>"
    ],
    [
      "li",
      "ght</w>"
    ],
    [
      "bu",
      "bb"
    ],
    [
      "i'",
      "ll</w>"
    ],
    [
      "en",
      "t</w>"
    ],
    [
      "er",
      "e"
    ],
    [
      "t",
      "s</w>"
    ],
    [
      "k",
      "ing</w>"
    ],
    [
      "ou",
      "n"
    ],
    [
      "f",
      "ri"
    ],
    [
      "fri",
      "en"
    ],
    [
      "th",
      "</w>"
    ],
    [
      "gu",
      "ppy</w>"
    ],
    [
      "wa",
      "s</w>"
    ],
    [
      "e",
      "x"
    ],
    [
      "d",
      "o"
    ],
    [
      "s",
      "c"
    ],
    [
      "el",
      "l</w>"
    ],
    [
      "fi",
      "l"
    ],
    [
      "fil",
      "ter</w>"
    ],
    [
      "e",
      "l</w>"
    ],
    [
      "'",
      "re</w>"
    ],
    [
      "ou",
      "t"
    ],
    [
      "to",
      "day</w>"
    ],
    [
      "an",
      "t</w>"
    ],
    [
      "h",
      "e"
    ],
    [
      "bubb",
      "les</w>"
    ],
    [
      "d",
      "s</w>"
    ],
    [
      "out",
      "side</w>"
    ],
    [
      "sm",
      "all</w>"
    ],
    [
      "c",
      "h</w>"
    ],
    [
      "t",
      "a"
    ],
    [
      "m",
      "or"
    ],
    [
      "g",
      "o"
    ],
    [
      "swi",
      "m</w>"
    ],
    [
      "bi",
      "g</w>"
    ],
    [
      "h",
      "ere</w>"
    ],
    [
      "k",
      "es</w>"
    ],
    [
      "u",
      "n"
    ],
    [
      "s",
      "p"
    ],
    [
      "s",
      "e</w>"
    ],
    [
      "o",
      "k</w>"
    ],
    [
      "m",
      "m"
    ],
    [
      "li",
      "t"
    ],
    [
      "on",
      "e</w>"
    ],
    [
      "g",
      "et</w>"
    ],
    [
      "f",
      "in"
    ],
    [
      "g",
      "h</w>"
    ],
    [
      "ri",
      "ght</w>"
    ],
    [
      "ni",
      "ce</w>"
    ],
    [
      "e",
      "at</w>"
    ],
    [
      "th",
      "ere</w>"
    ],
    [
      "n",
      "a"
    ],
    [
      "w",
      "or"
    ],
    [
      "some",
      "thing</w>"
    ],
    [
      "g",
      "ood</w>"
    ],
    [
      "fe",
      "el</w>"
    ],
    [
      "m",
      "u"
    ],
    [
      "the",
      "y</w>"
    ],
    [
      "s",
      "o</w>"
    ],
    [
      "e",
      "ver"
    ],
    [
      "as",
      "t"
    ],
    [
      "b",
      "r"
    ],
    [
      "lit",
      "tle</w>"
    ],
    [
      "m",
      "p"
    ],
    [
      "ere",
      "'s</w>"
    ],
    [
      "u",
      "r"
    ],
    [
      "ne",
      "ar</w>"
    ],
    [
      "b",
      "rea"
    ],
    [
      "t",
      "ast"
    ],
    [
      "y",
      "es</w>"
    ],
    [
      "s",
      "h"
    ],
    [
      "ou",
      "gh</w>"
    ],
    [
      "m",
      "es</w>"
    ],
    [
      "c",
      "le"
    ],
    [
      "th",
      "er</w>"
    ],
    [
      "e",
      "a"
    ],
    [
      "h",
      "o"
    ],
    [
      "th",
      "ere's</w>"
    ],
    [
      "c",
      "it"
    ],
    [
      "f",
      "a"
    ],
    [
      "swi",
      "mm"
    ],
    [
      "no",
      "t</w>"
    ],
    [
      "ou",
      "ld</w>"
    ],
    [
      "f",
      "f"
    ],
    [
      "b",
      "a"
    ],
    [
      "v",
      "i"
    ],
    [
      "g",
      "s</w>"
    ],
    [
      "g",
      "a"
    ],
    [
      "an",
      "s</w>"
    ],
    [
      "y",
      "thing</w>"
    ],
    [
      "thin",
      "gs</w>"
    ],
    [
      "ha",
      "pp"
    ],
    [
      "y",
      "s</w>"
    ],
    [
      "ni",
      "ght</w>"
    ],
    [
      "frien",
      "d</w>"
    ],
    [
      "you",
      "'re</w>"
    ],
    [
      "b",
      "or"
    ],
    [
      "loo",
      "k</w>"
    ],
    [
      "w",
      "ar"
    ],
    [
      "di",
      "ff"
    ],
    [
      "diff",
      "er"
    ],
    [
      "d",
      "rea"
    ],
    [
      "ma",
      "y"
    ],
    [
      "may",
      "be</w>"
    ],
    [
      "ex",
      "cit"
    ],
    [
      "wh",
      "o"
    ],
    [
      "wh",
      "at's</w>"
    ],
    [
      "t",
      "ell</w>"
    ],
    [
      "ne",
      "w</w>"
    ],
    [
      "a",
      "m</w>"
    ],
    [
      "lo",
      "ve</w>"
    ],
    [
      "b",
      "o"
    ],
    [
      "sc",
      "ar"
    ],
    [
      "d",
      "y</w>"
    ],
    [
      "s",
      "le"
    ],
    [
      "sle",
      "e"
    ],
    [
      "swimm",
      "ing</w>"
    ],
    [
      "an",
      "g"
    ],
    [
      "s",
      "a"
    ],
    [
      "be",
      "st</w>"
    ],
    [
      "pl",
      "ant</w>"
    ],
    [
      "i",
      "l</w>"
    ],
    [
      "ra",
      "in</w>"
    ],
    [
      "r",
      "y</w>"
    ],
    [
      "c",
      "</w>"
    ],
    [
      "c",
      "i"
    ],
    [
      "t",
      "al"
    ],
    [
      "k",
      "s</w>"
    ],
    [
      "s",
      "oun"
    ],
    [
      "co",
      "l"
    ],
    [
      "v",
      "er</w>"
    ],
    [
      "ti",
      "mes</w>"
    ],
    [
      "in",
      "d</w>"
    ],
    [
      "l",
      "a"
    ],
    [
      "at",
      "e</w>"
    ],
    [
      "wh",
      "ere</w>"
    ],
    [
      "on",
      "s</w>"
    ],
    [
      "al",
      "wa"
    ],
    [
      "alwa",
      "ys</w>"
    ],
    [
      "ma",
      "kes</w>"
    ],
    [
      "b",
      "y</w>"
    ],
    [
      "m",
      "b"
    ],
    [
      "f",
      "ro"
    ],
    [
      "mu",
      "si"
    ],
    [
      "musi",
      "c</w>"
    ],
    [
      "drea",
      "m</w>"
    ],
    [
      "n",
      "'t</w>"
    ],
    [
      "le",
      "as"
    ],
    [
      "th",
      "r"
    ],
    [
      "tast",
      "e</w>"
    ],
    [
      "c",
      "an"
    ],
    [
      "can",
      "'t</w>"
    ],
    [
      "who",
      "le</w>"
    ],
    [
      "i",
      "f</w>"
    ],
    [
      "fro",
      "m</w>"
    ],
    [
      "f",
      "e</w>"
    ],
    [
      "ch",
      "ang"
    ],
    [
      "l",
      "ou"
    ],
    [
      "p",
      "leas"
    ],
    [
      "pleas",
      "e</w>"
    ],
    [
      "t",
      "v"
    ],
    [
      "tv",
      "</w>"
    ],
    [
      "n",
      "</w>"
    ],
    [
      "loo",
      "king</w>"
    ],
    [
      "s",
      "ti"
    ],
    [
      "wi",
      "th</w>"
    ],
    [
      "u",
      "re</w>"
    ],
    [
      "some",
      "times</w>"
    ],
    [
      "at",
      "i"
    ],
    [
      "fe",
      "el"
    ],
    [
      "ever",
      "ything</w>"
    ],
    [
      "g",
      "re"
    ],
    [
      "happ",
      "en"
    ],
    [
      "d",
      "er</w>"
    ],
    [
      "s",
      "na"
    ],
    [
      "be",
      "ing</w>"
    ],
    [
      "excit",
      "ed</w>"
    ],
    [
      "differ",
      "ent</w>"
    ],
    [
      "be",
      "en</w>"
    ],
    [
      "s",
      "s</w>"
    ],
    [
      "re",
      "st</w>"
    ],
    [
      "me",
      "ans</w>"
    ],
    [
      "in",
      "t"
    ],
    [
      "do",
      "es</w>"
    ],
    [
      "brea",
      "the</w>"
    ],
    [
      "s",
      "ay</w>"
    ],
    [
      "wi",
      "ll</w>"
    ],
    [
      "t",
      "ly</w>"
    ],
    [
      "on",
      "es</w>"
    ],
    [
      "or",
      "it"
    ],
    [
      "w",
      "e</w>"
    ],
    [
      "di",
      "d</w>"
    ],
    [
      "h",
      "i"
    ],
    [
      "h",
      "u"
    ],
    [
      "feel",
      "s</w>"
    ],
    [
      "soun",
      "ds</w>"
    ],
    [
      "mb",
      "er</w>"
    ],
    [
      "tal",
      "k</w>"
    ],
    [
      "an",
      "y</w>"
    ],
    [
      "bor",
      "ed</w>"
    ],
    [
      "a",
      "f"
    ],
    [
      "ar",
      "t</w>"
    ],
    [
      "al",
      "ly</w>"
    ],
    [
      "g",
      "e"
    ],
    [
      "c",
      "on"
    ],
    [
      "o",
      "t</w>"
    ],
    [
      "sna",
      "il</w>"
    ],
    [
      "f",
      "or"
    ],
    [
      "li",
      "fe</w>"
    ],
    [
      "w",
      "ea"
    ],
    [
      "wea",
      "ther</w>"
    ],
    [
      "f",
      "as"
    ],
    [
      "re",
      "d</w>"
    ],
    [
      "ne",
      "ed</w>"
    ],
    [
      "g",
      "o</w>"
    ],
    [
      "scar",
      "ed</w>"
    ],
    [
      "al",
      "ga"
    ],
    [
      "alga",
      "e</w>"
    ],
    [
      "fa",
      "v"
    ],
    [
      "fav",
      "orit"
    ],
    [
      "favorit",
      "e</w>"
    ],
    [
      "i",
      "l"
    ],
    [
      "so",
      "me</w>"
    ],
    [
      "mo",
      "v"
    ],
    [
      "slee",
      "p</w>"
    ],
    [
      "co",
      "ld</w>"
    ],
    [
      "re",
      "me"
    ],
    [
      "reme",
      "mber</w>"
    ],
    [
      "oun",
      "d</w>"
    ],
    [
      "d",
      "e"
    ],
    [
      "ha",
      "ppy</w>"
    ],
    [
      "i'",
      "ve</w>"
    ],
    [
      "vi",
      "br"
    ],
    [
      "sp",
      "ot</w>"
    ],
    [
      "m",
      "i"
    ],
    [
      "thr",
      "ough</w>"
    ],
    [
      "f",
      "u"
    ],
    [
      "th",
      "is</w>"
    ],
    [
      "p",
      "re"
    ],
    [
      "fin",
      "e</w>"
    ],
    [
      "e",
      "yes</w>"
    ],
    [
      "ro",
      "ck</w>"
    ],
    [
      "on",
      "g</w>"
    ],
    [
      "c",
      "at</w>"
    ],
    [
      "h",
      "el"
    ],
    [
      "s",
      "el"
    ],
    [
      "sel",
      "f</w>"
    ],
    [
      "d",
      "ar"
    ],
    [
      "mor",
      "e</w>"
    ],
    [
      "cle",
      "an</w>"
    ],
    [
      "go",
      "ing</w>"
    ],
    [
      "to",
      "o</w>"
    ],
    [
      "lou",
      "d</w>"
    ],
    [
      "loo",
      "ks</w>"
    ],
    [
      "s",
      "ha"
    ],
    [
      "t",
      "t"
    ],
    [
      "a",
      "l</w>"
    ],
    [
      "l",
      "ow</w>"
    ],
    [
      "p",
      "e</w>"
    ],
    [
      "on",
      "ce</w>"
    ],
    [
      "be",
      "h"
    ],
    [
      "beh",
      "ind</w>"
    ],
    [
      "fin",
      "s</w>"
    ],
    [
      "war",
      "m</w>"
    ],
    [
      "i",
      "d</w>"
    ],
    [
      "col",
      "or"
    ],
    [
      "w",
      "ant</w>"
    ],
    [
      "b",
      "y"
    ],
    [
      "by",
      "e</w>"
    ],
    [
      "r",
      "ow</w>"
    ],
    [
      "m",
      "s</w>"
    ],
    [
      "s",
      "u"
    ],
    [
      "c",
      "a"
    ],
    [
      "w",
      "et</w>"
    ],
    [
      "c",
      "or"
    ],
    [
      "fas",
      "t</w>"
    ],
    [
      "a",
      "s</w>"
    ],
    [
      "int",
      "ere"
    ],
    [
      "intere",
      "st"
    ],
    [
      "g",
      "en"
    ],
    [
      "dar",
      "k</w>"
    ],
    [
      "m",
      "ou"
    ],
    [
      "some",
      "one</w>"
    ],
    [
      "be",
      "t"
    ],
    [
      "t",
      "er"
    ],
    [
      "t",
      "e"
    ],
    [
      "q",
      "u"
    ],
    [
      "w",
      "all</w>"
    ],
    [
      "your",
      "self</w>"
    ],
    [
      "j",
      "o"
    ],
    [
      "g",
      "oo"
    ],
    [
      "goo",
      "d"
    ],
    [
      "wor",
      "ld</w>"
    ],
    [
      "c",
      "ti"
    ],
    [
      "st",
      "ar"
    ],
    [
      "at",
      "ure</w>"
    ],
    [
      "en",
      "ough</w>"
    ],
    [
      "th",
      "en</w>"
    ],
    [
      "se",
      "e"
    ],
    [
      "f",
      "lo"
    ],
    [
      "o",
      "h</w>"
    ],
    [
      "in",
      "y</w>"
    ],
    [
      "s",
      "ing</w>"
    ],
    [
      "an",
      "ts</w>"
    ],
    [
      "w",
      "ould</w>"
    ],
    [
      "fu",
      "l</w>"
    ],
    [
      "ti",
      "red</w>"
    ],
    [
      "c",
      "as"
    ],
    [
      "e",
      "ver</w>"
    ],
    [
      "wor",
      "k</w>"
    ],
    [
      "mou",
      "th</w>"
    ],
    [
      "pp",
      "ed</w>"
    ],
    [
      "c",
      "lo"
    ],
    [
      "me",
      "mor"
    ],
    [
      "i",
      "e"
    ],
    [
      "d",
      "d"
    ],
    [
      "ver",
      "y</w>"
    ],
    [
      "sti",
      "ll</w>"
    ],
    [
      "hu",
      "m"
    ],
    [
      "u",
      "p</w>"
    ],
    [
      "thin",
      "king</w>"
    ],
    [
      "to",
      "p</w>"
    ],
    [
      "m",
      "ent</w>"
    ],
    [
      "st",
      "er"
    ],
    [
      "at",
      "ing</w>"
    ],
    [
      "w",
      "ell</w>"
    ],
    [
      "frien",
      "ds</w>"
    ],
    [
      "se",
      "as"
    ],
    [
      "l",
      "s</w>"
    ],
    [
      "at",
      "er</w>"
    ],
    [
      "mu",
      "ch</w>"
    ],
    [
      "an",
      "ing</w>"
    ],
    [
      "c",
      "oo"
    ],
    [
      "p",
      "o"
    ],
    [
      "no",
      "ti"
    ],
    [
      "vibr",
      "ati"
    ],
    [
      "the",
      "m</w>"
    ],
    [
      "the",
      "y"
    ],
    [
      "they",
      "'re</w>"
    ],
    [
      "bo",
      "dy</w>"
    ],
    [
      "el",
      "y</w>"
    ],
    [
      "t",
      "u"
    ],
    [
      "vibrati",
      "ons</w>"
    ],
    [
      "r",
      "</w>"
    ],
    [
      "w",
      "e"
    ],
    [
      "memor",
      "y</w>"
    ],
    [
      "ho",
      "pe</w>"
    ],
    [
      "lo",
      "t</w>"
    ],
    [
      "d",
      "n't</w>"
    ],
    [
      "e",
      "ar"
    ],
    [
      "wh",
      "i"
    ],
    [
      "sa",
      "me</w>"
    ],
    [
      "ba",
      "ck</w>"
    ],
    [
      "y",
      "e"
    ],
    [
      "sp",
      "e"
    ],
    [
      "w",
      "ay</w>"
    ],
    [
      "d",
      "a"
    ],
    [
      "f",
      "f</w>"
    ],
    [
      "ch",
      "e"
    ],
    [
      "color",
      "s</w>"
    ],
    [
      "wh",
      "o</w>"
    ],
    [
      "good",
      "night</w>"
    ],
    [
      "interest",
      "ing</w>"
    ],
    [
      "ba",
      "d</w>"
    ],
    [
      "co",
      "mp"
    ],
    [
      "th",
      "an</w>"
    ],
    [
      "a",
      "ga"
    ],
    [
      "th",
      "ou"
    ],
    [
      "h",
      "i</w>"
    ],
    [
      "n",
      "y</w>"
    ],
    [
      "af",
      "ra"
    ],
    [
      "afra",
      "id</w>"
    ],
    [
      "ma",
      "ke</w>"
    ],
    [
      "bi",
      "g"
    ],
    [
      "g",
      "il"
    ],
    [
      "gil",
      "ls</w>"
    ],
    [
      "gen",
      "tle</w>"
    ],
    [
      "g",
      "e</w>"
    ],
    [
      "sm",
      "art</w>"
    ],
    [
      "r",
      "u"
    ],
    [
      "ha",
      "s</w>"
    ],
    [
      "gre",
      "en</w>"
    ],
    [
      "ou",
      "s</w>"
    ],
    [
      "lo",
      "g</w>"
    ],
    [
      "s",
      "low</w>"
    ],
    [
      "he",
      "ar</w>"
    ],
    [
      "ever",
      "y</w>"
    ],
    [
      "mo",
      "st</w>"
    ],
    [
      "no",
      "thing</w>"
    ],
    [
      "ro",
      "w"
    ],
    [
      "en",
      "tly</w>"
    ],
    [
      "p",
      "ro"
    ],
    [
      "lo",
      "w"
    ],
    [
      "b",
      "rain</w>"
    ],
    [
      "slee",
      "p"
    ],
    [
      "te",
      "mp"
    ],
    [
      "to",
      "mor"
    ],
    [
      "tomor",
      "row</w>"
    ],
    [
      "c",
      "ur"
    ],
    [
      "wh",
      "y</w>"
    ],
    [
      "ta",
      "ke</w>"
    ],
    [
      "ci",
      "r"
    ],
    [
      "cir",
      "c"
    ],
    [
      "ne",
      "x"
    ],
    [
      "nex",
      "t</w>"
    ],
    [
      "hel",
      "l"
    ],
    [
      "hell",
      "o</w>"
    ],
    [
      "t",
      "iny</w>"
    ],
    [
      "ge",
      "tt"
    ],
    [
      "gett",
      "ing</w>"
    ],
    [
      "p",
      "oo"
    ],
    [
      "poo",
      "p</w>"
    ],
    [
      "re",
      "ally</w>"
    ],
    [
      "s",
      "in"
    ],
    [
      "bet",
      "ter</w>"
    ],
    [
      "mo",
      "ve</w>"
    ],
    [
      "h",
      "ar"
    ],
    [
      "un",
      "ny</w>"
    ],
    [
      "tast",
      "es</w>"
    ],
    [
      "sc",
      "are</w>"
    ],
    [
      "seas",
      "ons</w>"
    ],
    [
      "c",
      "u"
    ],
    [
      "f",
      "la"
    ],
    [
      "ri",
      "ed</w>"
    ],
    [
      "a",
      "c"
    ],
    [
      "c",
      "t</w>"
    ],
    [
      "see",
      "m</w>"
    ],
    [
      "in",
      "e</w>"
    ],
    [
      "w",
      "ere</w>"
    ],
    [
      "di",
      "dn't</w>"
    ],
    [
      "happen",
      "ed</w>"
    ],
    [
      "s",
      "ed</w>"
    ],
    [
      "n",
      "or"
    ],
    [
      "nor",
      "ma"
    ],
    [
      "norma",
      "l</w>"
    ],
    [
      "d",
      "ing</w>"
    ],
    [
      "b",
      "l"
    ],
    [
      "an",
      "ything</w>"
    ],
    [
      "c",
      "ould</w>"
    ],
    [
      "mov",
      "ing</w>"
    ],
    [
      "cti",
      "on</w>"
    ],
    [
      "m",
      "p</w>"
    ],
    [
      "hi",
      "de</w>"
    ],
    [
      "so",
      "f"
    ],
    [
      "p",
      "er"
    ],
    [
      "pl",
      "a"
    ],
    [
      "temp",
      "er"
    ],
    [
      "temper",
      "ature</w>"
    ],
    [
      "ca",
      "ve</w>"
    ],
    [
      "sh",
      "ould</w>"
    ],
    [
      "s",
      "n't</w>"
    ],
    [
      "st",
      "ay</w>"
    ],
    [
      "chang",
      "es</w>"
    ],
    [
      "ye",
      "ster"
    ],
    [
      "yester",
      "day</w>"
    ],
    [
      "f",
      "re"
    ],
    [
      "na",
      "me</w>"
    ],
    [
      "l",
      "ong</w>"
    ],
    [
      "cur",
      "r"
    ],
    [
      "ar",
      "ound</w>"
    ],
    [
      "n",
      "o</w>"
    ],
    [
      "t",
      "w"
    ],
    [
      "p",
      "s</w>"
    ],
    [
      "e",
      "as"
    ],
    [
      "z",
      "e</w>"
    ],
    [
      "li",
      "ve</w>"
    ],
    [
      "p",
      "h"
    ],
    [
      "gh",
      "ts</w>"
    ],
    [
      "g",
      "ra"
    ],
    [
      "gra",
      "v"
    ],
    [
      "grav",
      "el</w>"
    ],
    [
      "p",
      "art</w>"
    ],
    [
      "c",
      "k"
    ],
    [
      "he",
      "al"
    ],
    [
      "s",
      "wa"
    ],
    [
      "swa",
      "m</w>"
    ],
    [
      "ne",
      "ver</w>"
    ],
    [
      "s",
      "or"
    ],
    [
      "f",
      "el"
    ],
    [
      "fel",
      "t</w>"
    ],
    [
      "wat",
      "ch"
    ],
    [
      "m",
      "ed</w>"
    ],
    [
      "o",
      "p"
    ],
    [
      "t",
      "ried</w>"
    ],
    [
      "go",
      "es</w>"
    ],
    [
      "si",
      "ck</w>"
    ],
    [
      "re",
      "f"
    ],
    [
      "ref",
      "le"
    ],
    [
      "refle",
      "ction</w>"
    ],
    [
      "ta",
      "p</w>"
    ],
    [
      "brea",
      "thing</w>"
    ],
    [
      "qu",
      "i"
    ],
    [
      "qui",
      "et</w>"
    ],
    [
      "ati",
      "on</w>"
    ],
    [
      "ta",
      "il</w>"
    ],
    [
      "sof",
      "t</w>"
    ],
    [
      "chang",
      "e</w>"
    ],
    [
      "un",
      "d"
    ],
    [
      "und",
      "er"
    ],
    [
      "under",
      "st"
    ],
    [
      "underst",
      "and</w>"
    ],
    [
      "do",
      "e"
    ],
    [
      "doe",
      "sn't</w>"
    ],
    [
      "war",
      "m"
    ],
    [
      "t",
      "en"
    ],
    [
      "p",
      "e"
    ],
    [
      "bo",
      "t"
    ],
    [
      "bot",
      "to"
    ],
    [
      "botto",
      "m</w>"
    ],
    [
      "c",
      "al"
    ],
    [
      "me",
      "aning</w>"
    ],
    [
      "curr",
      "ent</w>"
    ],
    [
      "happen",
      "s</w>"
    ],
    [
      "k",
      "e"
    ],
    [
      "ke",
      "e"
    ],
    [
      "scar",
      "es</w>"
    ],
    [
      "whi",
      "le</w>"
    ],
    [
      "oo",
      "m</w>"
    ],
    [
      "do",
      "ing</w>"
    ],
    [
      "w",
      "n</w>"
    ],
    [
      "on",
      "ly</w>"
    ],
    [
      "rea",
      "dy</w>"
    ],
    [
      "b",
      "le</w>"
    ],
    [
      "i'",
      "d</w>"
    ],
    [
      "al",
      "one</w>"
    ],
    [
      "co",
      "mes</w>"
    ],
    [
      "go",
      "t</w>"
    ],
    [
      "ear",
      "li"
    ],
    [
      "earli",
      "er</w>"
    ],
    [
      "d",
      "ow</w>"
    ],
    [
      "g",
      "i"
    ],
    [
      "it",
      "ing</w>"
    ],
    [
      "flo",
      "ating</w>"
    ],
    [
      "he",
      "y</w>"
    ],
    [
      "sor",
      "ry</w>"
    ],
    [
      "eas",
      "y</w>"
    ],
    [
      "pro",
      "b"
    ],
    [
      "prob",
      "ab"
    ],
    [
      "probab",
      "ly</w>"
    ],
    [
      "wat",
      "ch</w>"
    ],
    [
      "cas",
      "tle</w>"
    ],
    [
      "coo",
      "l"
    ],
    [
      "g",
      "ing</w>"
    ],
    [
      "cu",
      "ri"
    ],
    [
      "differ",
      "ently</w>"
    ],
    [
      "pl",
      "ants</w>"
    ],
    [
      "fla",
      "kes</w>"
    ],
    [
      "har",
      "d</w>"
    ],
    [
      "d",
      "ge</w>"
    ],
    [
      "un",
      "der</w>"
    ],
    [
      "br",
      "ing</w>"
    ],
    [
      "ta",
      "pped</w>"
    ],
    [
      "cle",
      "an"
    ],
    [
      "b",
      "el"
    ],
    [
      "bel",
      "ly</w>"
    ],
    [
      "sh",
      "i"
    ],
    [
      "m",
      "y"
    ],
    [
      "w",
      "ants</w>"
    ],
    [
      "fa",
      "ce</w>"
    ],
    [
      "w",
      "in"
    ],
    [
      "ur",
      "ry</w>"
    ],
    [
      "se",
      "con"
    ],
    [
      "secon",
      "d</w>"
    ],
    [
      "he",
      "ater</w>"
    ],
    [
      "s",
      "k"
    ],
    [
      "m",
      "ind</w>"
    ],
    [
      "c",
      "lou"
    ],
    [
      "clou",
      "dy</w>"
    ],
    [
      "sc",
      "al"
    ],
    [
      "scal",
      "es</w>"
    ],
    [
      "g",
      "row"
    ],
    [
      "thou",
      "ght</w>"
    ],
    [
      "noti",
      "c"
    ],
    [
      "notic",
      "ed</w>"
    ],
    [
      "n",
      "er</w>"
    ],
    [
      "th",
      "er"
    ],
    [
      "co",
      "m"
    ],
    [
      "c",
      "r"
    ],
    [
      "aga",
      "in</w>"
    ],
    [
      "clo",
      "se</w>"
    ],
    [
      "ter",
      "ri"
    ],
    [
      "terri",
      "ble</w>"
    ],
    [
      "it",
      "s</w>"
    ],
    [
      "d",
      "or"
    ],
    [
      "dor",
      "sa"
    ],
    [
      "dorsa",
      "l</w>"
    ],
    [
      "f",
      "in</w>"
    ],
    [
      "big",
      "g"
    ],
    [
      "bigg",
      "er</w>"
    ],
    [
      "p",
      "ur"
    ],
    [
      "pur",
      "po"
    ],
    [
      "purpo",
      "se</w>"
    ],
    [
      "fe",
      "ed</w>"
    ],
    [
      "fe",
      "ar</w>"
    ],
    [
      "l",
      "ed</w>"
    ],
    [
      "b",
      "right</w>"
    ],
    [
      "s",
      "to"
    ],
    [
      "jo",
      "kes</w>"
    ],
    [
      "jo",
      "ke</w>"
    ],
    [
      "th",
      "an"
    ],
    [
      "warm",
      "er</w>"
    ],
    [
      "ca",
      "u"
    ],
    [
      "f",
      "ound</w>"
    ],
    [
      "b",
      "ri"
    ],
    [
      "las",
      "t</w>"
    ],
    [
      "ba",
      "thr"
    ],
    [
      "bathr",
      "oom</w>"
    ],
    [
      "vi",
      "s"
    ],
    [
      "s",
      "low"
    ],
    [
      "s",
      "top</w>"
    ],
    [
      "at",
      "ed</w>"
    ],
    [
      "in",
      "st"
    ],
    [
      "mi",
      "dd"
    ],
    [
      "midd",
      "le</w>"
    ],
    [
      "gre",
      "at</w>"
    ],
    [
      "sin",
      "ging</w>"
    ],
    [
      "af",
      "ter</w>"
    ],
    [
      "bb",
      "le</w>"
    ],
    [
      "da",
      "ph"
    ],
    [
      "daph",
      "ni"
    ],
    [
      "daphni",
      "a</w>"
    ],
    [
      "al",
      "ong</w>"
    ],
    [
      "ho",
      "w"
    ],
    [
      "bri",
      "dge</w>"
    ],
    [
      "f",
      "unny</w>"
    ],
    [
      "l",
      "ater</w>"
    ],
    [
      "noti",
      "ce</w>"
    ],
    [
      "ex",
      "i"
    ],
    [
      "hum",
      "an</w>"
    ],
    [
      "kee",
      "p</w>"
    ],
    [
      "hum",
      "ans</w>"
    ],
    [
      "mi",
      "ght</w>"
    ],
    [
      "t",
      "ing</w>"
    ],
    [
      "me",
      "an</w>"
    ],
    [
      "rea",
      "l</w>"
    ],
    [
      "o",
      "ff</w>"
    ],
    [
      "re",
      "co"
    ],
    [
      "i",
      "ther</w>"
    ],
    [
      "sleep",
      "ing</w>"
    ],
    [
      "bi",
      "r"
    ],
    [
      "watch",
      "ing</w>"
    ],
    [
      "curi",
      "ous</w>"
    ],
    [
      "cor",
      "ner</w>"
    ],
    [
      "p",
      "i"
    ],
    [
      "p",
      "el"
    ],
    [
      "pel",
      "le"
    ],
    [
      "pelle",
      "ts</w>"
    ],
    [
      "al",
      "s</w>"
    ],
    [
      "clean",
      "ed</w>"
    ],
    [
      "i",
      "mp"
    ],
    [
      "imp",
      "or"
    ],
    [
      "impor",
      "tan"
    ],
    [
      "importan",
      "t</w>"
    ],
    [
      "mov",
      "ed</w>"
    ],
    [
      "s",
      "ur"
    ],
    [
      "ho",
      "t</w>"
    ],
    [
      "ch",
      "il"
    ],
    [
      "ther",
      "mo"
    ],
    [
      "thermo",
      "me"
    ],
    [
      "thermome",
      "ter</w>"
    ],
    [
      "heal",
      "th"
    ],
    [
      "health",
      "y</w>"
    ],
    [
      "how",
      "'s</w>"
    ],
    [
      "p",
      "u"
    ],
    [
      "na",
      "med</w>"
    ],
    [
      "sh",
      "ri"
    ],
    [
      "shri",
      "mp</w>"
    ],
    [
      "col",
      "der</w>"
    ],
    [
      "sha",
      "p"
    ],
    [
      "shap",
      "es</w>"
    ],
    [
      "circ",
      "les</w>"
    ],
    [
      "wa",
      "it</w>"
    ],
    [
      "bubb",
      "le</w>"
    ],
    [
      "frien",
      "d"
    ],
    [
      "i",
      "de"
    ],
    [
      "ide",
      "a</w>"
    ],
    [
      "comp",
      "any</w>"
    ],
    [
      "on",
      "d</w>"
    ],
    [
      "soun",
      "d</w>"
    ],
    [
      "g",
      "row</w>"
    ],
    [
      "er",
      "v"
    ],
    [
      "col",
      "or</w>"
    ],
    [
      "or",
      "t</w>"
    ],
    [
      "c",
      "e"
    ],
    [
      "m",
      "any</w>"
    ],
    [
      "pre",
      "tt"
    ],
    [
      "prett",
      "y</w>"
    ],
    [
      "de",
      "cor"
    ],
    [
      "decor",
      "ation</w>"
    ],
    [
      "bor",
      "n</w>"
    ],
    [
      "pre",
      "s"
    ],
    [
      "v",
      "e"
    ],
    [
      "f",
      "er</w>"
    ],
    [
      "3",
      "</w>"
    ],
    [
      "flo",
      "at</w>"
    ],
    [
      "com",
      "ing</w>"
    ],
    [
      "h",
      "un"
    ],
    [
      "hun",
      "g"
    ],
    [
      "hung",
      "ry</w>"
    ],
    [
      "t",
      "y</w>"
    ],
    [
      "tu",
      "be</w>"
    ],
    [
      "a",
      "way</w>"
    ],
    [
      "star",
      "ed</w>"
    ],
    [
      "sh",
      "oo"
    ],
    [
      "shoo",
      "k</w>"
    ],
    [
      "o",
      "ld</w>"
    ],
    [
      "y",
      "where</w>"
    ],
    [
      "le",
      "t</w>"
    ],
    [
      "pe",
      "bble</w>"
    ],
    [
      "x",
      "</w>"
    ],
    [
      "lo",
      "ts</w>"
    ],
    [
      "h",
      "an"
    ],
    [
      "happ",
      "en</w>"
    ],
    [
      "la",
      "u"
    ],
    [
      "lau",
      "gh</w>"
    ],
    [
      "mo",
      "st"
    ],
    [
      "most",
      "ly</w>"
    ],
    [
      "for",
      "get</w>"
    ],
    [
      "in",
      "to</w>"
    ],
    [
      "gu",
      "e"
    ],
    [
      "b",
      "it</w>"
    ],
    [
      "i",
      "ma"
    ],
    [
      "ima",
      "g"
    ],
    [
      "imag",
      "in"
    ],
    [
      "who",
      "'s</w>"
    ],
    [
      "aga",
      "in"
    ],
    [
      "again",
      "st</w>"
    ],
    [
      "clo",
      "ck</w>"
    ],
    [
      "o",
      "x"
    ],
    [
      "ox",
      "y"
    ],
    [
      "oxy",
      "g"
    ],
    [
      "oxyg",
      "en</w>"
    ],
    [
      "t",
      "ru"
    ],
    [
      "tru",
      "e</w>"
    ],
    [
      "mo",
      "ment</w>"
    ],
    [
      "p",
      "ea"
    ],
    [
      "big",
      "ge"
    ],
    [
      "bigge",
      "st</w>"
    ],
    [
      "circ",
      "le</w>"
    ],
    [
      "v",
      "es</w>"
    ],
    [
      "fe",
      "ature</w>"
    ],
    [
      "cle",
      "aning</w>"
    ],
    [
      "st",
      "s</w>"
    ],
    [
      "thou",
      "ghts</w>"
    ],
    [
      "bor",
      "ing</w>"
    ],
    [
      "le",
      "ss</w>"
    ],
    [
      "than",
      "k</w>"
    ],
    [
      "e",
      "ds</w>"
    ],
    [
      "sleep",
      "y</w>"
    ],
    [
      "w",
      "s</w>"
    ],
    [
      "bet",
      "we"
    ],
    [
      "betwe",
      "en</w>"
    ],
    [
      "bir",
      "th"
    ],
    [
      "exi",
      "st</w>"
    ],
    [
      "coo",
      "l</w>"
    ],
    [
      "tan",
      "k"
    ],
    [
      "tank",
      "m"
    ],
    [
      "tankm",
      "ate</w>"
    ],
    [
      "ge",
      "ts</w>"
    ],
    [
      "si",
      "mp"
    ],
    [
      "simp",
      "le</w>"
    ],
    [
      "hi",
      "ding</w>"
    ],
    [
      "c",
      "ks</w>"
    ],
    [
      "e",
      "v"
    ],
    [
      "a",
      "pp"
    ],
    [
      "sa",
      "fe</w>"
    ],
    [
      "n",
      "u"
    ],
    [
      "c",
      "es</w>"
    ],
    [
      "pl",
      "an</w>"
    ],
    [
      "wor",
      "ms</w>"
    ],
    [
      "hel",
      "p</w>"
    ],
    [
      "su",
      "dd"
    ],
    [
      "cal",
      "m</w>"
    ],
    [
      "go",
      "als</w>"
    ],
    [
      "sti",
      "ff</w>"
    ],
    [
      "he",
      "ar"
    ],
    [
      "n",
      "ing</w>"
    ],
    [
      "cool",
      "ne"
    ],
    [
      "coolne",
      "ss</w>"
    ],
    [
      "li",
      "ck"
    ],
    [
      "p",
      "ri"
    ],
    [
      "qu",
      "ie"
    ],
    [
      "e",
      "st</w>"
    ],
    [
      "ch",
      "as"
    ],
    [
      "w",
      "on"
    ],
    [
      "won",
      "der</w>"
    ],
    [
      "al",
      "so</w>"
    ],
    [
      "spe",
      "ct</w>"
    ],
    [
      "f",
      "o"
    ],
    [
      "t",
      "ry</w>"
    ],
    [
      "cor",
      "al</w>"
    ],
    [
      "p",
      "ie"
    ],
    [
      "pie",
      "ce</w>"
    ],
    [
      "t",
      "re"
    ],
    [
      "tre",
      "as"
    ],
    [
      "treas",
      "ure</w>"
    ],
    [
      "che",
      "st</w>"
    ],
    [
      "low",
      "ing</w>"
    ],
    [
      "con",
      "fu"
    ],
    [
      "ha",
      "d</w>"
    ],
    [
      "che",
      "ck</w>"
    ],
    [
      "i",
      "r</w>"
    ],
    [
      "do",
      "wn</w>"
    ],
    [
      "see",
      "ms</w>"
    ],
    [
      "u",
      "sed</w>"
    ],
    [
      "happen",
      "ing</w>"
    ],
    [
      "be",
      "for"
    ],
    [
      "befor",
      "e</w>"
    ],
    [
      "it",
      "y</w>"
    ],
    [
      "d",
      "ry</w>"
    ],
    [
      "t",
      "ea"
    ],
    [
      "s",
      "ure</w>"
    ],
    [
      "color",
      "ful</w>"
    ],
    [
      "sha",
      "dow</w>"
    ],
    [
      "ver",
      "ing</w>"
    ],
    [
      "l",
      "on"
    ],
    [
      "lon",
      "ely</w>"
    ],
    [
      "n",
      "ed</w>"
    ],
    [
      "no",
      "i"
    ],
    [
      "ar",
      "ch</w>"
    ]
  ],
  "id2token": {
    "0": "'",
    "1": "'re</w>",
    "2": "'s</w>",
    "3": "'t</w>",
    "4": ".",
    "5": ".</w>",
    "6": "0",
    "7": "1",
    "8": "2",
    "9": "3",
    "10": "3</w>",
    "11": "4",
    "12": "5",
    "13": "6",
    "14": "7",
    "15": "8",
    "16": "9",
    "17": "</w>",
    "18": "<unk>",
    "19": "a",
    "20": "a</w>",
    "21": "ab",
    "22": "about</w>",
    "23": "ac",
    "24": "af",
    "25": "afra",
    "26": "afraid</w>",
    "27": "after</w>",
    "28": "aga",
    "29": "again",
    "30": "again</w>",
    "31": "against</w>",
    "32": "al",
    "33": "al</w>",
    "34": "alga",
    "35": "algae</w>",
    "36": "all</w>",
    "37": "ally</w>",
    "38": "alone</w>",
    "39": "along</w>",
    "40": "als</w>",
    "41": "also</w>",
    "42": "alwa",
    "43": "always</w>",
    "44": "am</w>",
    "45": "an",
    "46": "an</w>",
    "47": "and</w>",
    "48": "ang",
    "49": "aning</w>",
    "50": "ans</w>",
    "51": "ant</w>",
    "52": "ants</w>",
    "53": "any</w>",
    "54": "anything</w>",
    "55": "app",
    "56": "ar",
    "57": "ar</w>",
    "58": "arch</w>",
    "59": "are</w>",
    "60": "around</w>",
    "61": "art</w>",
    "62": "as",
    "63": "as</w>",
    "64": "ast",
    "65": "at",
    "66": "at's</w>",
    "67": "at</w>",
    "68": "ate</w>",
    "69": "ated</w>",
    "70": "ater</w>",
    "71": "ati",
    "72": "ating</w>",
    "73": "ation</w>",
    "74": "ature</w>",
    "75": "away</w>",
    "76": "ay</w>",
    "77": "b",
    "78": "ba",
    "79": "back</w>",
    "80": "bad</w>",
    "81": "bathr",
    "82": "bathroom</w>",
    "83": "bb",
    "84": "bble</w>",
    "85": "be",
    "86": "be</w>",
    "87": "been</w>",
    "88": "befor",
    "89": "before</w>",
    "90": "beh",
    "91": "behind</w>",
    "92": "being</w>",
    "93": "bel",
    "94": "belly</w>",
    "95": "best</w>",
    "96": "bet",
    "97": "better</w>",
    "98": "betwe",
    "99": "between</w>",
    "100": "bi",
    "101": "big",
    "102": "big</w>",
    "103": "bigg",
    "104": "bigge",
    "105": "bigger</w>",
    "106": "biggest</w>",
    "107": "bir",
    "108": "birth",
    "109": "bit</w>",
    "110": "bl",
    "111": "ble</w>",
    "112": "bo",
    "113": "body</w>",
    "114": "bor",
    "115": "bored</w>",
    "116": "boring</w>",
    "117": "born</w>",
    "118": "bot",
    "119": "botto",
    "120": "bottom</w>",
    "121": "br",
    "122": "brain</w>",
    "123": "brea",
    "124": "breathe</w>",
    "125": "breathing</w>",
    "126": "bri",
    "127": "bridge</w>",
    "128": "bright</w>",
    "129": "bring</w>",
    "130": "bu",
    "131": "bubb",
    "132": "bubble</w>",
    "133": "bubbles</w>",
    "134": "but</w>",
    "135": "by",
    "136": "by</w>",
    "137": "bye</w>",
    "138": "c",
    "139": "c</w>",
    "140": "ca",
    "141": "cal",
    "142": "calm</w>",
    "143": "can",
    "144": "can't</w>",
    "145": "can</w>",
    "146": "cas",
    "147": "castle</w>",
    "148": "cat</w>",
    "149": "cau",
    "150": "cave</w>",
    "151": "ce",
    "152": "ce</w>",
    "153": "ces</w>",
    "154": "ch",
    "155": "ch</w>",
    "156": "chang",
    "157": "change</w>",
    "158": "changes</w>",
    "159": "chas",
    "160": "che",
    "161": "check</w>",
    "162": "chest</w>",
    "163": "chil",
    "164": "ci",
    "165": "cir",
    "166": "circ",
    "167": "circle</w>",
    "168": "circles</w>",
    "169": "cit",
    "170": "ck",
    "171": "ck</w>",
    "172": "cks</w>",
    "173": "cle",
    "174": "clean",
    "175": "clean</w>",
    "176": "cleaned</w>",
    "177": "cleaning</w>",
    "178": "clo",
    "179": "clock</w>",
    "180": "close</w>",
    "181": "clou",
    "182": "cloudy</w>",
    "183": "co",
    "184": "col",
    "185": "cold</w>",
    "186": "colder</w>",
    "187": "color",
    "188": "color</w>",
    "189": "colorful</w>",
    "190": "colors</w>",
    "191": "com",
    "192": "comes</w>",
    "193": "coming</w>",
    "194": "comp",
    "195": "company</w>",
    "196": "con",
    "197": "confu",
    "198": "coo",
    "199": "cool",
    "200": "cool</w>",
    "201": "coolne",
    "202": "coolness</w>",
    "203": "cor",
    "204": "coral</w>",
    "205": "corner</w>",
    "206": "could</w>",
    "207": "cr",
    "208": "ct</w>",
    "209": "cti",
    "210": "ction</w>",
    "211": "cu",
    "212": "cur",
    "213": "curi",
    "214": "curious</w>",
    "215": "curr",
    "216": "current</w>",
    "217": "d",
    "218": "d</w>",
    "219": "da",
    "220": "daph",
    "221": "daphni",
    "222": "daphnia</w>",
    "223": "dar",
    "224": "dark</w>",
    "225": "day</w>",
    "226": "dd",
    "227": "de",
    "228": "de</w>",
    "229": "decor",
    "230": "decoration</w>",
    "231": "der</w>",
    "232": "dge</w>",
    "233": "di",
    "234": "did</w>",
    "235": "didn't</w>",
    "236": "diff",
    "237": "differ",
    "238": "different</w>",
    "239": "differently</w>",
    "240": "ding</w>",
    "241": "dn't</w>",
    "242": "do",
    "243": "do</w>",
    "244": "doe",
    "245": "does</w>",
    "246": "doesn't</w>",
    "247": "doing</w>",
    "248": "don't</w>",
    "249": "dor",
    "250": "dorsa",
    "251": "dorsal</w>",
    "252": "dow</w>",
    "253": "down</w>",
    "254": "drea",
    "255": "dream</w>",
    "256": "dry</w>",
    "257": "ds</w>",
    "258": "dy</w>",
    "259": "e",
    "260": "e</w>",
    "261": "ea",
    "262": "ear",
    "263": "earli",
    "264": "earlier</w>",
    "265": "eas",
    "266": "easy</w>",
    "267": "eat</w>",
    "268": "ed</w>",
    "269": "eds</w>",
    "270": "el",
    "271": "el</w>",
    "272": "ell</w>",
    "273": "ely</w>",
    "274": "en",
    "275": "en</w>",
    "276": "enough</w>",
    "277": "ent</w>",
    "278": "ently</w>",
    "279": "er",
    "280": "er</w>",
    "281": "ere",
    "282": "ere's</w>",
    "283": "ere</w>",
    "284": "erv",
    "285": "es</w>",
    "286": "est</w>",
    "287": "et</w>",
    "288": "ev",
    "289": "ever",
    "290": "ever</w>",
    "291": "every</w>",
    "292": "everything</w>",
    "293": "ex",
    "294": "excit",
    "295": "excited</w>",
    "296": "exi",
    "297": "exist</w>",
    "298": "eyes</w>",
    "299": "f",
    "300": "f</w>",
    "301": "fa",
    "302": "face</w>",
    "303": "fas",
    "304": "fast</w>",
    "305": "fav",
    "306": "favorit",
    "307": "favorite</w>",
    "308": "fe",
    "309": "fe</w>",
    "310": "fear</w>",
    "311": "feature</w>",
    "312": "feed</w>",
    "313": "feel",
    "314": "feel</w>",
    "315": "feels</w>",
    "316": "fel",
    "317": "felt</w>",
    "318": "fer</w>",
    "319": "ff",
    "320": "ff</w>",
    "321": "fi",
    "322": "fil",
    "323": "filter</w>",
    "324": "fin",
    "325": "fin</w>",
    "326": "fine</w>",
    "327": "fins</w>",
    "328": "fish</w>",
    "329": "fla",
    "330": "flakes</w>",
    "331": "flo",
    "332": "float</w>",
    "333": "floating</w>",
    "334": "fo",
    "335": "food</w>",
    "336": "for",
    "337": "for</w>",
    "338": "forget</w>",
    "339": "found</w>",
    "340": "fre",
    "341": "fri",
    "342": "frien",
    "343": "friend",
    "344": "friend</w>",
    "345": "friends</w>",
    "346": "fro",
    "347": "from</w>",
    "348": "fu",
    "349": "ful</w>",
    "350": "funny</w>",
    "351": "g",
    "352": "g</w>",
    "353": "ga",
    "354": "ge",
    "355": "ge</w>",
    "356": "gen",
    "357": "gentle</w>",
    "358": "get</w>",
    "359": "gets</w>",
    "360": "gett",
    "361": "getting</w>",
    "362": "gh",
    "363": "gh</w>",
    "364": "ght</w>",
    "365": "ghts</w>",
    "366": "gi",
    "367": "gil",
    "368": "gills</w>",
    "369": "ging</w>",
    "370": "glas",
    "371": "glass</w>",
    "372": "go",
    "373": "go</w>",
    "374": "goals</w>",
    "375": "goes</w>",
    "376": "going</w>",
    "377": "goo",
    "378": "good",
    "379": "good</w>",
    "380": "goodnight</w>",
    "381": "got</w>",
    "382": "gra",
    "383": "grav",
    "384": "gravel</w>",
    "385": "gre",
    "386": "great</w>",
    "387": "green</w>",
    "388": "grow",
    "389": "grow</w>",
    "390": "gs</w>",
    "391": "gu",
    "392": "gue",
    "393": "guppy</w>",
    "394": "h",
    "395": "h</w>",
    "396": "ha",
    "397": "had</w>",
    "398": "han",
    "399": "happ",
    "400": "happen",
    "401": "happen</w>",
    "402": "happened</w>",
    "403": "happening</w>",
    "404": "happens</w>",
    "405": "happy</w>",
    "406": "har",
    "407": "hard</w>",
    "408": "has</w>",
    "409": "have</w>",
    "410": "he",
    "411": "heal",
    "412": "health",
    "413": "healthy</w>",
    "414": "hear",
    "415": "hear</w>",
    "416": "heater</w>",
    "417": "hel",
    "418": "hell",
    "419": "hello</w>",
    "420": "help</w>",
    "421": "here</w>",
    "422": "hey</w>",
    "423": "hi",
    "424": "hi</w>",
    "425": "hide</w>",
    "426": "hiding</w>",
    "427": "ho",
    "428": "hope</w>",
    "429": "hot</w>",
    "430": "how",
    "431": "how's</w>",
    "432": "how</w>",
    "433": "hu",
    "434": "hum",
    "435": "human</w>",
    "436": "humans</w>",
    "437": "hun",
    "438": "hung",
    "439": "hungry</w>",
    "440": "i",
    "441": "i'",
    "442": "i'd</w>",
    "443": "i'll</w>",
    "444": "i'm</w>",
    "445": "i've</w>",
    "446": "i</w>",
    "447": "id</w>",
    "448": "ide",
    "449": "idea</w>",
    "450": "ie",
    "451": "if</w>",
    "452": "il",
    "453": "il</w>",
    "454": "ima",
    "455": "imag",
    "456": "imagin",
    "457": "imp",
    "458": "impor",
    "459": "importan",
    "460": "important</w>",
    "461": "in",
    "462": "in</w>",
    "463": "ind</w>",
    "464": "ine</w>",
    "465": "ing</w>",
    "466": "inst",
    "467": "int",
    "468": "intere",
    "469": "interest",
    "470": "interesting</w>",
    "471": "into</w>",
    "472": "iny</w>",
    "473": "ir</w>",
    "474": "is</w>",
    "475": "it",
    "476": "it's</w>",
    "477": "it</w>",
    "478": "ither</w>",
    "479": "iting</w>",
    "480": "its</w>",
    "481": "ity</w>",
    "482": "j",
    "483": "jo",
    "484": "joke</w>",
    "485": "jokes</w>",
    "486": "just</w>",
    "487": "k",
    "488": "k</w>",
    "489": "ke",
    "490": "ke</w>",
    "491": "kee",
    "492": "keep</w>",
    "493": "kes</w>",
    "494": "king</w>",
    "495": "know</w>",
    "496": "ks</w>",
    "497": "l",
    "498": "l</w>",
    "499": "la",
    "500": "las",
    "501": "last</w>",
    "502": "later</w>",
    "503": "lau",
    "504": "laugh</w>",
    "505": "ld</w>",
    "506": "le",
    "507": "le</w>",
    "508": "leas",
    "509": "led</w>",
    "510": "les</w>",
    "511": "less</w>",
    "512": "let</w>",
    "513": "li",
    "514": "lick",
    "515": "life</w>",
    "516": "light</w>",
    "517": "like</w>",
    "518": "lit",
    "519": "little</w>",
    "520": "live</w>",
    "521": "ll</w>",
    "522": "lo",
    "523": "log</w>",
    "524": "lon",
    "525": "lonely</w>",
    "526": "long</w>",
    "527": "loo",
    "528": "look</w>",
    "529": "looking</w>",
    "530": "looks</w>",
    "531": "lot</w>",
    "532": "lots</w>",
    "533": "lou",
    "534": "loud</w>",
    "535": "love</w>",
    "536": "low",
    "537": "low</w>",
    "538": "lowing</w>",
    "539": "ls</w>",
    "540": "ly</w>",
    "541": "m",
    "542": "m</w>",
    "543": "ma",
    "544": "make</w>",
    "545": "makes</w>",
    "546": "many</w>",
    "547": "may",
    "548": "maybe</w>",
    "549": "mb",
    "550": "mber</w>",
    "551": "me",
    "552": "me</w>",
    "553": "mean</w>",
    "554": "meaning</w>",
    "555": "means</w>",
    "556": "med</w>",
    "557": "memor",
    "558": "memory</w>",
    "559": "ment</w>",
    "560": "mes</w>",
    "561": "mi",
    "562": "midd",
    "563": "middle</w>",
    "564": "might</w>",
    "565": "mind</w>",
    "566": "mm",
    "567": "mo",
    "568": "moment</w>",
    "569": "mor",
    "570": "more</w>",
    "571": "most",
    "572": "most</w>",
    "573": "mostly</w>",
    "574": "mou",
    "575": "mouth</w>",
    "576": "mov",
    "577": "move</w>",
    "578": "moved</w>",
    "579": "moving</w>",
    "580": "mp",
    "581": "mp</w>",
    "582": "ms</w>",
    "583": "mu",
    "584": "much</w>",
    "585": "musi",
    "586": "music</w>",
    "587": "my",
    "588": "my</w>",
    "589": "n",
    "590": "n't</w>",
    "591": "n</w>",
    "592": "na",
    "593": "name</w>",
    "594": "named</w>",
    "595": "ne",
    "596": "near</w>",
    "597": "ned</w>",
    "598": "need</w>",
    "599": "ner</w>",
    "600": "never</w>",
    "601": "new</w>",
    "602": "nex",
    "603": "next</w>",
    "604": "ni",
    "605": "nice</w>",
    "606": "night</w>",
    "607": "ning</w>",
    "608": "no",
    "609": "no</w>",
    "610": "noi",
    "611": "nor",
    "612": "norma",
    "613": "normal</w>",
    "614": "not</w>",
    "615": "nothing</w>",
    "616": "noti",
    "617": "notic",
    "618": "notice</w>",
    "619": "noticed</w>",
    "620": "now</w>",
    "621": "nu",
    "622": "ny</w>",
    "623": "o",
    "624": "o</w>",
    "625": "of</w>",
    "626": "off</w>",
    "627": "oh</w>",
    "628": "ok</w>",
    "629": "old</w>",
    "630": "on",
    "631": "on't</w>",
    "632": "on</w>",
    "633": "once</w>",
    "634": "ond</w>",
    "635": "one</w>",
    "636": "ones</w>",
    "637": "ong</w>",
    "638": "only</w>",
    "639": "ons</w>",
    "640": "oo",
    "641": "ood</w>",
    "642": "oom</w>",
    "643": "op",
    "644": "or",
    "645": "or</w>",
    "646": "orit",
    "647": "ort</w>",
    "648": "ot</w>",
    "649": "ou",
    "650": "ough</w>",
    "651": "ould</w>",
    "652": "oun",
    "653": "ound</w>",
    "654": "ous</w>",
    "655": "out",
    "656": "out</w>",
    "657": "outside</w>",
    "658": "ow</w>",
    "659": "ox",
    "660": "oxy",
    "661": "oxyg",
    "662": "oxygen</w>",
    "663": "p",
    "664": "p</w>",
    "665": "part</w>",
    "666": "pe",
    "667": "pe</w>",
    "668": "pea",
    "669": "pebble</w>",
    "670": "pel",
    "671": "pelle",
    "672": "pellets</w>",
    "673": "per",
    "674": "ph",
    "675": "pi",
    "676": "pie",
    "677": "piece</w>",
    "678": "pl",
    "679": "pla",
    "680": "plan</w>",
    "681": "plant</w>",
    "682": "plants</w>",
    "683": "pleas",
    "684": "please</w>",
    "685": "po",
    "686": "poo",
    "687": "poop</w>",
    "688": "pp",
    "689": "pped</w>",
    "690": "ppy</w>",
    "691": "pre",
    "692": "pres",
    "693": "prett",
    "694": "pretty</w>",
    "695": "pri",
    "696": "pro",
    "697": "prob",
    "698": "probab",
    "699": "probably</w>",
    "700": "ps</w>",
    "701": "pu",
    "702": "pur",
    "703": "purpo",
    "704": "purpose</w>",
    "705": "q",
    "706": "qu",
    "707": "qui",
    "708": "quie",
    "709": "quiet</w>",
    "710": "r",
    "711": "r</w>",
    "712": "ra",
    "713": "rain</w>",
    "714": "re",
    "715": "re</w>",
    "716": "rea",
    "717": "ready</w>",
    "718": "real</w>",
    "719": "really</w>",
    "720": "reco",
    "721": "red</w>",
    "722": "ref",
    "723": "refle",
    "724": "reflection</w>",
    "725": "reme",
    "726": "remember</w>",
    "727": "rest</w>",
    "728": "ri",
    "729": "ried</w>",
    "730": "right</w>",
    "731": "ro",
    "732": "rock</w>",
    "733": "row",
    "734": "row</w>",
    "735": "ru",
    "736": "ry</w>",
    "737": "s",
    "738": "s</w>",
    "739": "sa",
    "740": "safe</w>",
    "741": "same</w>",
    "742": "say</w>",
    "743": "sc",
    "744": "scal",
    "745": "scales</w>",
    "746": "scar",
    "747": "scare</w>",
    "748": "scared</w>",
    "749": "scares</w>",
    "750": "se",
    "751": "se</w>",
    "752": "seas",
    "753": "seasons</w>",
    "754": "secon",
    "755": "second</w>",
    "756": "sed</w>",
    "757": "see",
    "758": "see</w>",
    "759": "seem</w>",
    "760": "seems</w>",
    "761": "sel",
    "762": "self</w>",
    "763": "sh",
    "764": "sh</w>",
    "765": "sha",
    "766": "shadow</w>",
    "767": "shap",
    "768": "shapes</w>",
    "769": "shi",
    "770": "shoo",
    "771": "shook</w>",
    "772": "should</w>",
    "773": "shri",
    "774": "shrimp</w>",
    "775": "si",
    "776": "sick</w>",
    "777": "side</w>",
    "778": "simp",
    "779": "simple</w>",
    "780": "sin",
    "781": "sing</w>",
    "782": "singing</w>",
    "783": "sk",
    "784": "sle",
    "785": "slee",
    "786": "sleep",
    "787": "sleep</w>",
    "788": "sleeping</w>",
    "789": "sleepy</w>",
    "790": "slow",
    "791": "slow</w>",
    "792": "sm",
    "793": "small</w>",
    "794": "smart</w>",
    "795": "sn't</w>",
    "796": "sna",
    "797": "snail</w>",
    "798": "so",
    "799": "so</w>",
    "800": "sof",
    "801": "soft</w>",
    "802": "some",
    "803": "some</w>",
    "804": "someone</w>",
    "805": "something</w>",
    "806": "sometimes</w>",
    "807": "sor",
    "808": "sorry</w>",
    "809": "soun",
    "810": "sound</w>",
    "811": "sounds</w>",
    "812": "sp",
    "813": "spe",
    "814": "spect</w>",
    "815": "spot</w>",
    "816": "ss</w>",
    "817": "st",
    "818": "st</w>",
    "819": "star",
    "820": "stared</w>",
    "821": "stay</w>",
    "822": "ster",
    "823": "sti",
    "824": "stiff</w>",
    "825": "still</w>",
    "826": "sto",
    "827": "stop</w>",
    "828": "sts</w>",
    "829": "su",
    "830": "sudd",
    "831": "sur",
    "832": "sure</w>",
    "833": "swa",
    "834": "swam</w>",
    "835": "swi",
    "836": "swim</w>",
    "837": "swimm",
    "838": "swimming</w>",
    "839": "t",
    "840": "t</w>",
    "841": "ta",
    "842": "tail</w>",
    "843": "take</w>",
    "844": "tal",
    "845": "talk</w>",
    "846": "tan",
    "847": "tank",
    "848": "tank</w>",
    "849": "tankm",
    "850": "tankmate</w>",
    "851": "tap</w>",
    "852": "tapped</w>",
    "853": "tast",
    "854": "taste</w>",
    "855": "tastes</w>",
    "856": "te",
    "857": "tea",
    "858": "tell</w>",
    "859": "temp",
    "860": "temper",
    "861": "temperature</w>",
    "862": "ten",
    "863": "ter",
    "864": "ter</w>",
    "865": "terri",
    "866": "terrible</w>",
    "867": "th",
    "868": "th</w>",
    "869": "than",
    "870": "than</w>",
    "871": "thank</w>",
    "872": "that's</w>",
    "873": "that</w>",
    "874": "the",
    "875": "the</w>",
    "876": "them</w>",
    "877": "then</w>",
    "878": "ther",
    "879": "ther</w>",
    "880": "there's</w>",
    "881": "there</w>",
    "882": "thermo",
    "883": "thermome",
    "884": "thermometer</w>",
    "885": "they",
    "886": "they're</w>",
    "887": "they</w>",
    "888": "thin",
    "889": "thing</w>",
    "890": "things</w>",
    "891": "think</w>",
    "892": "thinking</w>",
    "893": "this</w>",
    "894": "thou",
    "895": "thought</w>",
    "896": "thoughts</w>",
    "897": "thr",
    "898": "through</w>",
    "899": "ti",
    "900": "time</w>",
    "901": "times</w>",
    "902": "ting</w>",
    "903": "tiny</w>",
    "904": "tired</w>",
    "905": "tle</w>",
    "906": "tly</w>",
    "907": "to",
    "908": "to</w>",
    "909": "today</w>",
    "910": "tomor",
    "911": "tomorrow</w>",
    "912": "too</w>",
    "913": "top</w>",
    "914": "tre",
    "915": "treas",
    "916": "treasure</w>",
    "917": "tried</w>",
    "918": "tru",
    "919": "true</w>",
    "920": "try</w>",
    "921": "ts</w>",
    "922": "tt",
    "923": "tu",
    "924": "tube</w>",
    "925": "tv",
    "926": "tv</w>",
    "927": "tw",
    "928": "ty</w>",
    "929": "u",
    "930": "un",
    "931": "und",
    "932": "under",
    "933": "under</w>",
    "934": "underst",
    "935": "understand</w>",
    "936": "unny</w>",
    "937": "up</w>",
    "938": "ur",
    "939": "ure</w>",
    "940": "urry</w>",
    "941": "used</w>",
    "942": "ust</w>",
    "943": "v",
    "944": "ve",
    "945": "ve</w>",
    "946": "ver",
    "947": "ver</w>",
    "948": "vering</w>",
    "949": "very</w>",
    "950": "ves</w>",
    "951": "vi",
    "952": "vibr",
    "953": "vibrati",
    "954": "vibrations</w>",
    "955": "vis",
    "956": "w",
    "957": "w</w>",
    "958": "wa",
    "959": "wait</w>",
    "960": "wall</w>",
    "961": "want</w>",
    "962": "wants</w>",
    "963": "war",
    "964": "warm",
    "965": "warm</w>",
    "966": "warmer</w>",
    "967": "was</w>",
    "968": "wat",
    "969": "watch",
    "970": "watch</w>",
    "971": "watching</w>",
    "972": "water</w>",
    "973": "way</w>",
    "974": "we",
    "975": "we</w>",
    "976": "wea",
    "977": "weather</w>",
    "978": "well</w>",
    "979": "were</w>",
    "980": "wet</w>",
    "981": "wh",
    "982": "what's</w>",
    "983": "what</w>",
    "984": "when</w>",
    "985": "where</w>",
    "986": "whi",
    "987": "while</w>",
    "988": "who",
    "989": "who's</w>",
    "990": "who</w>",
    "991": "whole</w>",
    "992": "why</w>",
    "993": "wi",
    "994": "will</w>",
    "995": "win",
    "996": "with</w>",
    "997": "wn</w>",
    "998": "won",
    "999": "wonder</w>",
    "1000": "wor",
    "1001": "work</w>",
    "1002": "world</w>",
    "1003": "worms</w>",
    "1004": "would</w>",
    "1005": "ws</w>",
    "1006": "x",
    "1007": "x</w>",
    "1008": "y",
    "1009": "y</w>",
    "1010": "ye",
    "1011": "yes</w>",
    "1012": "yester",
    "1013": "yesterday</w>",
    "1014": "you",
    "1015": "you're</w>",
    "1016": "you</w>",
    "1017": "your",
    "1018": "your</w>",
    "1019": "yourself</w>",
    "1020": "ys</w>",
    "1021": "ything</w>",
    "1022": "ywhere</w>",
    "1023": "z",
    "1024": "ze</w>"
  }
}